01
42
d6
4c
38
c1
dc
00
33
ac
f1
bd
fb
05
2b
1d
af
e7
36
06
25
11
f9
12
26
b8
19
2c
e3
c2
c3
38
5d
24
ef
bd
41
0b
f5
cc
00
13
02
fc
4e
cb
0d
10
ca
21
2b
32
29
09
c7
dd
18
c5
03
37
09
d6
b9
e4
c1
cd
cb
af
d4
be
2a
fe
00
c9
42
a9
32
0e
0a
31
1f
c5
1a
11
0f
f0
26
91
ce
de
fd
38
ff
3b
37
da
e6
06
cc
fa
0e
16
1e
37
25
d2
eb
ca
d3
a1
09
3b
ec
f3
12
01
cb
d0
ae
fb
0d
57
0b
20
e4
30
04
ab
0e
bb
22
ec
e7
bf
3c
02
dc
26
2a
31
fc
01
f6
bf
39
e0
e7
13
f0
0e
31
16
c5
00
ab
e4
fe
37
33
e2
bc
af
c8
30
ef
1b
bc
00
17
00
00
fe
b2
3b
a7
0a
58
c6
e4
e6
f6
06
23
1c
0c
2c
c2
be
cd
2a
15
d5
2d
24
44
ef
26
46
b9
93
9e
b7
ca
47
db
1e
16
d5
f0
1d
fd
0f
d3
34
c4
7f
22
b6
fc
d7
ff
af
d6
25
37
dc
38
1f
e3
ba
fb
b8
c4
37
32
1f
2b
3e
10
f2
3c
c5
f8
ba
1e
3f
fb
c2
c7
b6
25
c5
05
ec
fc
5e
e6
f4
09
96
be
61
c1
05
e2
19
c2
02
fb
05
c9
20
06
3a
a9
d2
de
b8
99
c2
0b
48
1d
e4
21
09
08
d8
cc
31
57
29
8f
8d
43
2e
db
ec
01
02
e6
f3
21
d6
bd
14
ea
c1
bf
d2
14
f5
ce
05
24
09
28
00
27
43
10
0e
f0
4d
03
eb
ff
49
46
58
ed
fd
da
cf
c5
f2
ec
1b
b2
c9
15
be
0c
98
0a
65
02
db
02
f6
b9
fd
cc
2a
d2
e3
07
2e
db
04
14
e8
dc
17
f7
0e
d2
c1
a2
37
f1
31
16
e0
54
40
24
c2
a1
11
18
a5
fb
c3
