08
16
06
03
02
f7
fe
0b
f7
05
ef
fb
1b
02
01
03
0b
03
f3
f9
f9
fc
06
03
f7
06
e3
02
06
02
03
e3
00
f3
02
0b
ff
08
12
03
fe
fc
fb
01
1b
fe
fd
f3
02
13
ff
00
00
0f
01
ff
fb
e5
0b
f7
02
03
05
06
16
f2
00
ee
06
03
f6
02
ee
f1
06
e3
03
fc
f1
0d
01
f5
03
ff
01
fc
05
07
03
f5
00
07
0d
16
0a
02
f8
00
fe
02
07
01
ff
15
fe
fd
f3
0c
08
03
00
f2
f8
07
f7
f7
fb
06
08
03
02
01
01
07
f5
01
00
00
00
fe
f1
05
03
01
ee
fc
00
f2
00
f8
00
08
e8
fc
08
04
07
05
01
cb
f3
0d
19
14
03
01
fb
02
fd
fd
06
09
06
00
01
ff
03
03
00
1f
ff
01
09
01
07
05
f5
ff
fd
04
f6
14
0a
f8
ff
01
02
de
20
0e
04
0a
f4
f7
12
06
f5
15
12
fa
fd
04
0a
0a
ea
12
fb
fd
02
ff
08
e9
f9
01
00
0d
0e
fd
08
0d
01
fb
fe
ff
02
02
ec
f7
01
00
17
06
02
e7
01
0c
02
12
de
fd
05
0a
fe
f5
00
fe
fa
fc
ff
03
fe
0b
0b
ff
f9
ff
0d
11
07
02
04
0d
fd
05
f0
ff
13
0b
02
02
01
ff
01
03
eb
f5
fe
ff
07
02
fa
02
f6
02
ff
09
04
d2
02
e7
fc
0f
00
ff
f1
ff
ff
fe
fb
02
09
ff
fd
12
01
e9
fe
05
00
0e
00
fe
03
0e
09
11
fd
05
f7
05
f2
eb
00
1f
fc
01
ee
00
f9
0f
f8
11
09
ff
01
14
eb
f9
06
fd
fc
f1
0f
0a
00
10
02
03
15
ef
f1
00
f6
03
08
03
03
03
02
0c
0b
ff
1d
03
08
f4
01
f2
00
cb
0c
e0
ff
0a
e3
01
ff
01
00
fb
ef
d1
ff
dc
f9
02
de
00
ff
19
02
fe
fc
ea
03
01
f5
05
f7
ff
0e
d6
ff
fd
04
f6
e1
f9
10
db
04
ea
0c
03
ff
02
ed
fd
fe
fd
01
fc
00
03
ff
02
fe
fc
09
ff
f0
ff
df
fd
ff
01
0e
f6
06
01
00
02
ff
10
0d
00
fd
f7
f6
05
ff
08
0b
f9
0a
02
fe
00
08
fc
04
0c
1d
ff
ff
01
e8
0e
d9
01
ee
f4
19
04
07
fc
11
e4
04
00
03
14
0e
02
ff
f3
24
ff
fd
f8
fd
14
fe
12
ef
ff
10
f2
fb
fe
01
ff
fc
f8
03
02
ef
f2
00
fe
16
fd
13
11
01
00
01
09
03
0f
ef
0a
fe
ff
f5
02
fe
fd
e4
04
05
d7
10
ff
fc
ff
19
fe
1d
00
17
ff
00
15
00
f2
01
01
04
fa
eb
00
ff
ff
fe
ff
02
02
ff
0e
fe
1e
fe
09
fd
18
ff
f2
ff
0e
db
df
0b
f5
02
01
e7
12
01
fa
0b
ff
ff
04
f9
05
ff
0b
ff
fd
c5
0d
f1
fa
fe
ff
f5
e5
fb
e6
03
07
01
f9
fd
f8
03
ff
03
ff
19
00
10
fe
fd
f5
0d
00
fc
fe
02
20
02
ed
08
f8
07
e8
ff
fd
13
04
01
fe
02
0d
f8
00
fc
f7
00
ff
03
02
01
fc
02
05
01
09
ff
ee
fd
f7
0b
01
02
ee
04
02
01
ee
fd
fc
f2
0d
00
dc
f7
00
03
ff
ff
0c
08
00
01
02
03
fe
09
fb
04
ff
ed
e7
01
00
01
ff
06
01
01
f3
fb
0b
01
00
03
07
1a
03
fe
18
e7
10
08
1c
f5
e1
12
ff
00
fd
db
07
04
ff
0e
03
fd
02
0f
d7
f9
ff
01
0a
05
fe
17
df
0f
f0
fe
02
fc
0a
16
fa
00
0d
f9
02
03
06
fc
04
01
0d
2d
fd
12
e5
f9
e8
ff
04
f8
06
00
ff
fe
ea
fa
fe
0f
fa
05
fd
06
ff
01
e1
04
01
02
13
1b
03
fa
f9
02
01
26
00
06
00
fc
05
fc
f9
f1
ff
ff
00
ff
ec
ff
f8
01
03
fe
16
06
01
0a
09
00
fd
fe
02
f3
fc
ff
f2
01
eb
fe
e4
ff
f7
fe
17
02
0b
0e
fd
e4
e3
0a
f9
0e
e7
02
02
fb
fe
0d
01
23
04
1a
f4
fa
02
e0
06
de
ed
01
00
0a
ff
fe
24
04
fe
03
07
40
11
f2
06
fe
ff
0b
03
19
04
00
f8
11
01
ef
05
0d
08
fa
f3
02
eb
0e
cc
00
f8
d3
fc
fd
f2
fe
1d
02
08
fc
b9
01
ff
da
03
04
06
02
01
ff
ff
01
0f
0a
02
06
00
27
03
00
07
03
ee
1a
0a
fd
d3
fb
0f
04
fd
ff
00
0a
f1
eb
02
01
00
00
02
08
f3
fb
fb
18
03
dc
03
05
01
03
02
0c
18
0a
ec
fe
02
fd
24
f2
15
03
04
fb
eb
f0
fc
eb
c1
19
fa
01
01
fa
02
fd
ff
f4
fb
ff
01
02
f9
f1
01
18
e9
e6
fe
ff
25
f6
05
00
ff
fe
0b
09
d0
fb
03
0e
02
01
05
fe
0c
03
17
e8
03
0d
f1
fb
f8
03
fc
06
06
fc
03
f5
e3
e5
05
f8
fd
f9
14
fb
ff
02
f5
01
fc
0d
0a
0f
ff
02
01
fe
04
f1
ff
0d
f0
00
ff
09
01
07
00
09
ff
12
01
01
0e
02
03
00
0b
01
fa
e6
fd
03
fe
00
01
15
00
00
ff
00
f6
ff
04
fb
01
ff
01
ff
02
fa
19
11
fa
00
06
0e
11
00
ef
fb
ff
07
fd
f5
03
10
f2
fe
03
11
f8
ee
e9
fd
fe
01
f7
ee
fd
fe
06
ff
f5
03
f5
fa
fe
23
05
ff
fe
fe
ff
01
e7
00
03
09
e6
04
f0
02
ed
02
dd
08
f8
ff
03
01
00
01
fb
fa
05
e8
0b
fe
fd
01
00
09
03
03
f5
fd
00
00
ee
fe
d7
00
ee
c0
00
ec
0a
14
f3
02
0d
05
0d
17
07
01
06
02
00
03
01
11
09
1a
01
ff
00
04
03
fb
f7
04
02
fa
ee
15
02
fb
04
02
fe
de
e9
08
0e
fc
ff
fd
fa
25
0c
02
f7
18
04
fb
f6
f8
09
fc
02
fb
fc
0e
fc
fa
1d
03
ff
ff
05
f5
e8
e4
fe
02
f2
08
04
08
17
f4
e2
fc
ff
00
10
ea
06
01
1b
00
fe
ff
01
fd
0a
fd
10
e4
04
f0
fd
f8
f3
00
fe
fc
05
04
02
dc
bb
0b
01
f2
fe
16
00
03
00
ff
f0
02
15
0e
06
0a
fe
d1
01
fe
ff
dc
fd
09
e6
04
05
ef
fc
02
f6
14
02
16
ee
02
0b
00
03
00
0e
00
02
06
fe
fd
00
00
00
ec
ff
01
f7
fc
fe
00
f3
ff
eb
fe
04
fe
11
f8
09
0b
15
0a
05
0e
28
00
06
00
00
e5
03
e8
e6
ff
fa
d6
ff
19
04
1b
f6
03
fc
0c
00
d9
ff
00
05
ff
1a
07
19
0b
05
e8
00
15
fd
fe
02
01
fb
00
04
ed
0e
00
fc
00
fe
03
17
0e
05
ff
0a
df
00
05
0a
00
12
0f
dc
ff
f3
00
01
ea
03
05
dd
0b
fe
02
f2
ff
24
f9
0a
f7
fe
02
e4
06
fa
00
e7
06
0b
f8
d6
09
03
01
01
02
fc
f6
16
ff
fb
02
02
01
fc
0e
0a
06
ff
07
ec
04
ff
03
03
fe
04
05
ef
fc
0c
ff
02
fe
db
fd
fa
fe
0e
03
f1
f0
04
fb
0a
fa
01
04
04
09
02
07
ed
fc
fe
fd
02
ed
fe
f1
fa
00
f7
ff
ff
ed
d3
16
0f
01
00
02
f9
10
11
ff
0d
e9
02
01
06
00
fc
02
e7
e9
ff
fe
03
f7
e2
02
fd
ef
07
ff
02
f8
fc
ec
ff
fa
09
17
04
fe
01
fe
01
04
17
06
f8
d2
f8
f6
05
05
ff
00
fd
d7
e3
da
ff
09
07
0b
00
e7
00
f9
0a
00
e3
ff
03
ff
ff
00
03
05
fe
02
02
fe
01
15
fe
ff
f9
00
1c
03
ee
02
da
00
ef
ff
04
f5
e2
11
19
03
fc
03
f8
fd
01
0b
fe
15
00
06
ef
f1
04
18
ff
18
02
1b
03
fc
ff
00
1a
09
18
04
02
0b
0b
e1
ec
f4
fe
ee
fc
14
01
f8
ff
fc
0a
fb
00
16
f4
01
03
fd
f7
05
de
12
ea
fd
11
ce
02
03
f3
00
f0
f7
15
fe
f7
ff
05
ce
01
fe
11
06
01
01
09
00
00
ff
07
f7
fe
12
0d
04
03
fe
f9
ef
fa
f0
0e
ff
f6
e4
08
01
03
10
f9
fe
fc
01
02
01
03
04
f8
fe
00
18
0f
fe
ff
18
ff
00
01
fd
0f
fe
09
01
fc
ff
e1
09
df
00
f9
0d
03
0c
0d
dd
03
0e
ff
ff
fe
f5
02
00
05
0a
fe
01
05
de
0b
e3
fc
10
fd
f0
01
09
20
f9
fe
05
03
00
e3
ff
ff
ff
fa
09
fe
fe
f5
00
0f
fd
07
0e
fe
0b
ee
f8
fb
02
03
05
04
02
00
f9
19
05
04
fe
04
fe
fd
fe
01
00
fe
fd
01
fd
00
fe
fb
fc
02
03
fd
03
02
01
fc
ff
02
fd
ff
fa
01
fe
02
fd
00
ff
00
01
fd
02
fb
00
f8
01
fc
00
ff
02
00
01
fc
04
00
00
03
ff
04
01
00
00
00
00
00
f8
fe
fd
04
01
04
fe
fc
03
fd
fd
00
00
fe
fe
fe
02
ff
fd
01
fe
fc
fe
00
01
02
fb
fb
fe
02
01
ff
00
fd
02
fd
fe
fc
fd
fd
02
01
04
03
01
ff
ff
00
fd
fd
ff
00
04
03
fe
01
02
fe
05
05
ff
08
01
ff
fb
fe
fc
f9
00
fa
00
03
fe
02
02
fc
fa
f8
ff
ff
fe
02
ff
fc
fd
fb
00
fe
00
00
03
fc
fb
fe
ff
04
02
02
ff
ff
00
fe
01
fe
03
04
06
01
ff
04
ff
01
ff
00
ff
ff
00
02
00
ff
00
01
00
02
01
fe
04
fd
fe
00
00
02
ff
ff
fe
fd
ff
fc
ff
ff
ff
fd
ff
fd
02
ff
fd
fd
02
ff
04
01
fb
fb
fe
01
02
fe
fd
ff
fc
fe
fa
fe
02
ff
01
00
fc
ff
00
01
fc
01
fe
ff
fb
03
ff
ff
fe
00
02
fd
fb
fb
01
fe
fd
01
00
01
ff
fb
ff
01
fe
fd
00
f3
fe
ff
ff
fc
fc
19
04
06
07
fd
00
03
ff
00
e6
02
e3
d8
f7
06
07
f0
08
01
08
fb
dd
02
00
28
00
03
ff
f9
03
fa
15
fe
fc
00
ff
fc
d3
ff
fd
03
01
03
03
03
03
09
02
fd
fc
e9
08
e3
f8
07
f9
00
0d
f7
03
f0
e4
fe
fe
ff
0c
01
f9
02
04
03
fa
f2
08
06
02
00
14
1d
0e
0d
fe
f4
f5
fd
d4
ff
e6
fc
fc
ff
c4
ff
13
00
01
d7
f5
01
17
f7
ff
0a
fa
f8
03
06
ea
fe
00
0c
dc
02
02
09
fe
fa
ea
f3
05
e0
fd
fe
05
fb
fd
f7
fa
01
00
26
04
fe
00
08
13
ff
0e
f6
f5
e5
00
f9
13
e4
15
06
fb
ea
0f
fa
fe
ff
e5
f8
fa
fd
02
fe
01
fd
f0
ef
01
fe
fb
0d
18
00
d7
01
fd
ff
1d
fd
00
1e
02
fd
ff
1b
fd
0a
fb
f2
00
ec
f8
08
06
ee
fc
fe
fd
00
eb
07
fa
e3
d7
00
04
ff
03
f4
1f
01
f3
fc
fc
01
cc
27
0b
0d
fe
04
02
fd
02
15
02
0f
e7
fe
fe
e2
fe
fe
02
02
ce
ff
fe
f7
04
f8
ff
fc
04
0b
05
fd
e7
ec
f9
fe
0a
f3
ff
e9
fd
00
02
08
02
08
ee
11
0d
06
03
fe
06
fe
01
03
10
f4
00
ff
e0
f3
fb
f5
0e
ff
f6
09
fe
c7
fe
ea
fc
f7
fd
00
f5
03
01
02
01
ff
ec
00
fd
ef
fe
fa
fa
fc
03
e6
01
f6
fd
0f
00
0c
12
f1
05
09
f7
09
00
f3
ff
02
f0
03
00
05
ff
04
e6
05
14
02
0a
0b
01
fe
f9
0e
eb
05
00
0c
fe
10
0c
04
db
00
0b
00
f2
fe
0f
fc
02
22
06
00
f7
fd
01
0d
02
00
04
1b
0d
00
04
f9
cc
fe
00
10
fb
17
10
00
04
06
ff
fe
1b
03
01
f1
fa
02
03
d3
fe
ec
fd
f7
14
05
11
fb
f0
1b
ff
04
04
0f
fb
fd
07
05
16
05
01
05
06
0c
02
02
fe
00
ff
ff
f4
0a
02
00
1e
de
fb
fe
00
03
04
05
13
fb
0f
e9
fd
ff
fe
0c
08
0e
ff
f4
06
0f
e5
09
ea
ff
00
03
fd
fd
fa
01
11
ec
04
01
01
03
f7
ec
11
00
fe
03
fe
fe
08
f9
0f
10
02
00
00
ea
f9
f7
03
d2
0d
00
01
0b
fd
06
00
fe
f1
01
09
0a
0b
e2
fe
03
f0
0f
fe
02
fd
e9
00
05
ec
03
03
f4
fb
05
01
15
03
1e
f4
f8
22
01
0c
fe
fe
ff
0c
fe
ed
f3
20
01
07
0d
f3
01
ee
ff
ff
f5
03
fe
00
f4
fd
06
ff
fc
03
ff
00
01
ff
08
0a
ff
02
0f
ff
18
01
f8
fe
12
fc
ef
02
01
0e
ff
f9
02
fc
08
ef
16
fd
e8
21
fc
f6
01
0f
02
0e
e3
15
03
10
0d
02
10
00
00
e6
12
0c
00
fe
0d
f8
fe
00
f8
0f
01
10
ff
fa
ff
0b
03
fe
09
15
00
fb
fe
04
f8
03
fd
06
f9
05
de
fe
07
06
01
02
00
08
02
01
e0
fe
01
ff
fe
0c
05
fd
f0
e8
04
ff
ff
02
f6
04
f6
f9
fe
04
f1
04
00
02
09
05
0c
09
0b
06
f9
fd
06
fd
01
fd
fa
ff
03
ff
00
ff
02
06
16
00
01
03
f7
f8
00
02
fe
00
03
ee
1c
f5
f6
fd
ff
00
20
f5
f4
ff
10
10
09
12
04
09
fe
18
01
04
05
08
13
05
22
fc
fc
09
ff
0b
0c
09
fe
f2
f2
1e
02
ff
12
e3
1b
06
00
01
14
0c
0e
01
f0
08
01
fe
12
fe
20
ff
0d
f8
ff
f1
fc
06
0a
07
03
ea
05
ff
ff
c5
08
06
fc
03
fa
f6
0e
ff
fe
00
06
04
fc
ec
f9
fe
04
15
00
01
01
e7
00
f6
db
f4
01
10
00
de
fe
0a
06
fa
05
ff
1c
01
00
fb
18
ff
fd
09
fc
fb
ff
02
fe
02
05
00
03
02
1d
ff
fc
06
01
fc
09
06
35
e7
03
f8
12
00
00
12
fe
fc
fa
e4
fb
ed
f9
ff
f3
ee
22
06
fd
fa
f9
00
e9
01
03
fe
f6
ff
f3
07
09
ff
01
ff
16
e0
02
0b
04
e6
fe
f0
06
05
0c
0f
03
f3
fc
f8
08
02
1b
01
0f
0e
e6
04
fc
13
fe
fe
05
fa
fe
fa
3b
fd
d9
01
ff
23
03
ff
f2
ed
fc
00
14
ff
0e
fe
01
e6
04
0a
0c
f9
0d
fe
d4
09
05
01
07
fe
0c
e5
f2
02
01
fb
03
fc
00
ff
01
fb
fd
01
de
01
03
0a
07
f4
fd
ff
00
04
00
0a
13
fd
e4
03
02
02
0a
08
e7
01
f9
bd
fa
df
0c
02
0a
fd
fe
ff
02
eb
f2
02
06
03
ff
00
02
fd
02
01
fc
00
04
fc
01
0a
e4
ee
f9
00
ff
fe
fb
f1
f5
02
ec
f9
fd
00
f9
ff
00
fc
f6
07
ff
0f
f8
fc
f3
ff
ff
eb
ed
00
01
fe
14
02
fd
f9
f3
fd
fe
fe
01
ff
01
00
fa
ff
ff
00
02
fe
ff
04
fb
00
03
fc
fc
fe
fd
fe
fe
fa
fc
fd
fd
00
03
fe
00
fc
fd
01
ff
01
ff
ff
fd
fc
05
03
ff
ff
01
fc
03
fd
fd
00
ff
fd
fe
02
fe
00
01
01
fb
fe
fb
ff
fd
ff
03
05
f9
03
fd
fe
01
fe
fd
fe
ff
fd
fb
00
02
fb
fc
fc
02
00
fd
03
02
fc
02
01
03
fe
00
fb
fd
ff
fe
fd
fd
03
fe
01
fd
fc
fc
01
00
01
fe
05
03
fe
fb
02
fd
fd
00
00
01
fe
fc
03
00
fa
fc
00
00
fb
00
00
fb
ff
00
03
00
02
fb
fc
fd
ff
fd
02
ff
fd
ff
ff
fa
01
fe
ff
ff
04
fc
00
f9
00
00
02
fd
fd
ff
fa
00
00
fc
01
00
05
00
03
04
01
fd
f7
07
ff
ff
00
03
ff
fe
fe
fa
04
01
ff
01
01
fd
04
fe
fe
ff
fe
fe
fe
ff
fb
01
fe
fc
02
01
ff
fe
fe
01
fb
02
fc
06
ff
fe
01
ff
00
00
fc
03
fc
01
02
00
ff
ff
01
fd
fe
01
fe
04
01
fc
fb
00
01
03
01
fe
ff
01
02
00
04
fe
fe
fe
fc
fe
02
02
04
03
fe
02
fd
fd
03
01
04
00
01
fe
fb
fb
fd
00
fb
02
05
04
ff
02
fe
00
00
fe
01
00
fc
fc
fb
00
fc
ff
fe
00
00
fe
00
02
fe
01
ff
01
fc
00
ff
00
ff
00
fe
02
03
ff
04
fc
02
ff
04
f9
fe
03
02
fd
01
ff
00
01
fe
00
fc
f9
ff
02
fd
fb
fe
fd
fd
fd
fd
02
ff
04
ff
ff
06
03
00
fe
02
02
fb
02
05
01
02
fe
01
f7
00
fc
fc
03
00
03
02
fd
00
ff
fd
ff
f9
fd
00
ff
fb
fe
00
fc
fb
01
03
ff
06
fd
00
fb
00
01
ff
01
01
00
02
02
04
00
ff
fd
fe
00
01
fb
02
01
fc
02
fd
fd
00
ff
02
01
02
fe
03
00
01
04
01
fe
fe
01
02
fd
ff
02
ff
03
ff
fe
ff
fb
fd
ff
00
00
00
02
fe
03
fc
02
00
fd
00
ff
01
fc
fe
02
fa
fc
00
01
fe
00
fa
fe
02
fb
01
fc
fe
00
fc
00
fd
fb
fd
ff
05
fe
fc
fb
01
03
fe
01
fd
fd
00
03
00
ff
01
03
03
fa
fd
00
03
fc
00
01
ff
fd
01
00
fc
04
fe
00
ff
fd
fb
04
04
fd
00
ff
ff
ff
02
fe
fe
00
fc
fe
04
07
00
ff
ff
0e
03
14
ef
de
f8
04
f3
fb
01
05
e4
ff
0d
fa
08
02
fb
e6
f1
07
17
01
fe
0c
00
0e
00
e3
03
f9
ff
00
fb
04
03
02
02
ff
06
fe
02
07
ff
f0
fc
ff
08
1b
02
0c
00
fd
fd
fa
19
16
08
01
ef
04
ff
fa
ff
ff
0b
02
09
1b
ff
05
09
fc
f4
0a
ee
f5
01
02
fe
ee
fe
f4
01
0d
01
fc
df
f6
ff
01
11
04
fc
04
00
02
02
ff
0a
05
04
11
12
f1
04
1a
fb
1c
ed
01
00
1e
19
01
fb
e7
01
04
08
f8
02
fc
02
fc
05
00
03
05
12
03
04
f1
ff
fe
05
01
bc
00
ea
02
f9
fb
fc
17
dc
05
12
0a
02
21
0a
00
05
fe
12
2a
fd
fe
00
02
fe
06
02
16
02
02
14
03
03
fd
fd
01
00
01
d6
0e
02
07
04
fd
ff
07
0d
19
03
13
ed
09
fe
f9
0e
04
07
00
ff
01
08
fd
fe
e8
15
01
00
01
0f
02
0e
01
f9
ef
ee
03
fc
09
f4
fa
fb
ff
00
ff
1c
0c
02
10
13
02
ff
e6
00
ef
fa
0a
1f
00
06
f5
11
0d
00
ff
06
fb
04
06
14
de
01
ff
fe
02
1d
f5
04
01
01
00
0a
0e
0a
0c
27
02
ff
00
fc
01
24
01
e0
09
08
fe
c2
04
06
f7
e5
01
fc
03
05
03
fa
04
00
09
01
fc
f9
00
00
02
03
ff
eb
03
ff
ef
02
1a
fd
f2
02
00
04
07
03
03
02
0a
fb
0c
07
08
ef
fb
fc
dd
25
fe
fa
02
fc
01
1a
00
0d
02
ff
e8
18
15
01
fa
1d
f5
d0
03
fc
f9
0d
fb
02
0a
10
01
f4
fd
f8
00
01
05
05
1c
fb
01
13
ec
00
f6
05
04
02
05
f7
fd
03
1a
08
03
fe
02
01
e8
02
02
04
05
fe
02
00
02
fa
ee
00
02
02
01
07
f9
fa
05
f4
00
fa
f7
eb
e9
ff
0a
09
0c
10
ec
fe
f2
08
03
00
fe
ee
f2
06
fe
fe
fd
fe
f8
0f
11
02
03
00
f2
21
fb
e8
00
01
01
f2
db
f6
01
ff
06
00
e1
23
f0
00
02
e4
fd
f1
28
f0
0e
06
02
fe
fc
13
f8
06
1f
fa
fc
03
fe
fb
d0
03
06
10
ef
2e
04
05
de
03
e7
02
fc
fc
ee
fb
ef
02
11
0a
00
01
ff
00
07
fe
21
01
fe
ed
0c
fd
02
fc
02
0d
0f
00
02
f4
10
1a
05
01
f6
0b
00
02
ff
03
1f
fe
f8
e5
fb
dd
05
01
01
02
00
0c
fc
08
09
fe
fe
f5
0b
f4
fc
03
fc
d9
0a
02
fe
05
da
04
0b
05
06
10
fc
01
06
04
fb
d8
01
fd
07
fe
0d
fe
f2
00
f5
fd
e1
ff
12
00
01
02
ff
02
07
f7
18
ff
cd
12
fc
0e
04
ff
02
08
0f
10
fc
19
fe
f8
e5
00
fd
0e
05
ed
e8
05
0a
07
08
10
fa
e4
01
f2
f7
11
05
08
fd
ff
06
fd
01
0c
06
06
fc
02
00
08
e6
0a
e2
fe
14
0c
ff
03
03
00
11
fe
24
fd
06
01
01
0e
04
ff
f0
e6
fd
00
04
fe
fe
fe
ff
05
00
f9
f1
fd
02
01
e7
17
0b
f6
16
ff
06
04
07
01
fe
fc
ff
f9
fc
ff
01
fe
05
fd
12
02
00
16
0f
ec
00
0c
ff
00
03
fa
fb
06
f4
00
00
04
f7
fd
f8
00
01
03
f8
10
f4
15
02
0b
02
01
02
07
fd
09
e5
15
00
01
02
d5
de
07
ff
09
06
f9
04
13
0d
13
08
fe
00
03
10
ef
fd
04
0c
03
01
fe
0f
05
0e
00
06
0a
fd
fd
08
09
f4
03
fc
0c
e7
02
fc
e9
fa
07
05
01
00
09
ef
fe
02
fa
07
03
1d
0c
02
e9
fd
15
01
01
02
ec
fe
ef
14
f4
ff
11
0b
0c
fb
07
07
f1
f9
03
f4
01
12
01
26
fa
01
f1
00
fe
ff
01
fe
dc
ff
01
06
01
ff
ff
ec
fd
01
00
03
fe
dc
02
0e
e4
fb
02
04
05
ed
01
fb
07
04
0b
fc
05
f1
0b
03
0a
02
08
ea
fa
e9
fe
ff
16
e4
fd
e0
fd
0b
0d
06
e3
f3
f5
01
e3
02
07
fe
f7
04
05
1a
06
00
ff
f4
08
0c
00
07
fe
0f
fb
18
00
f4
f5
fe
00
0f
fd
09
00
16
fe
05
fe
01
01
ff
fc
e2
ff
00
01
f7
fc
0d
01
02
fe
ff
10
ee
f2
e1
fa
01
13
f2
fa
e2
fe
f8
e6
06
03
fe
b8
16
f5
fe
ff
06
00
fe
f7
0a
fe
ff
07
f1
f8
02
18
fd
fe
fc
fe
f1
00
06
01
02
02
09
d8
f7
01
09
fc
eb
1e
03
0b
e9
2a
ff
04
01
16
0a
09
f4
fd
fd
01
fd
e9
e4
f7
05
f2
f8
1c
fe
0e
e3
f8
f7
fd
01
00
03
07
04
fa
fd
0a
00
fd
d7
01
ef
ff
f6
14
ff
f6
f6
09
17
ff
01
0c
07
ff
fe
f6
06
14
01
ea
0f
17
10
fe
fc
01
11
02
f5
f6
15
0d
04
fa
03
02
00
ff
ff
0b
f6
04
fe
12
03
05
05
fe
00
ee
fc
01
13
ff
e7
00
ed
03
03
0e
01
ff
02
01
01
fc
06
00
10
ff
07
01
f3
01
f4
01
f1
fc
ff
fe
fc
f4
01
03
0a
dd
f4
ff
03
ff
00
1e
00
04
0c
08
ea
fe
01
03
14
dd
f4
00
03
01
17
09
00
00
02
fd
fd
28
e7
03
05
23
ff
ec
fe
11
07
03
ec
08
00
26
f3
fe
03
03
10
04
df
05
00
01
00
27
00
02
12
02
0b
14
13
fd
e5
fd
fb
22
07
fe
13
f9
00
02
1a
02
22
01
eb
0e
05
fd
fa
02
ec
fc
f3
0a
0b
15
09
0a
04
0e
00
00
ff
ff
06
09
01
fe
ff
03
fc
08
e8
ff
ff
04
f4
f8
00
f3
05
01
01
da
03
07
17
fb
fe
fc
20
f8
e9
fb
fc
1d
0d
f6
05
e3
e9
fe
ff
03
00
01
f9
06
0d
f7
02
00
ff
f3
19
fb
fc
02
0c
19
ff
07
ff
02
0f
05
01
fe
f7
ff
0c
02
00
f4
00
01
0c
02
0f
03
0d
1b
fc
f8
e9
07
0c
05
04
fc
05
01
00
f2
f7
00
04
00
02
01
09
01
01
05
e6
ff
05
ef
0b
1a
fb
fc
01
fd
00
05
02
0b
f4
0d
ff
01
0b
13
08
18
fd
07
00
03
15
01
f9
ff
f7
03
fe
0d
00
05
00
03
fd
fb
fe
fe
df
05
17
fe
00
ff
03
01
f5
04
0c
0d
07
d5
00
ff
04
e6
fd
00
0d
0e
00
ff
02
fb
f2
1a
fd
f0
01
1b
0e
18
01
ff
fd
f9
10
13
10
01
0c
05
fa
0c
f3
0c
ff
0b
ff
0e
fe
0b
00
ff
17
f2
fe
15
ce
fc
05
02
09
02
0d
17
11
ff
1c
19
ff
00
06
02
07
02
0b
01
ee
fc
00
0e
02
fe
fe
eb
05
ff
1f
03
0b
03
f6
0a
01
fe
02
f7
f9
03
d0
f9
05
0b
cd
00
f5
fe
08
00
03
da
f7
05
fc
00
ff
02
fc
0a
19
ff
ff
e2
0d
06
00
02
02
05
ff
e4
1f
10
e3
00
08
01
19
f2
0d
ff
0d
0f
24
fe
13
f4
03
14
fd
fe
fd
f9
0a
0b
02
fc
02
08
01
0b
fb
ff
fc
f9
f2
f3
02
ef
fd
05
06
02
01
00
15
13
04
fd
ff
f6
02
fe
fe
03
f5
fe
1a
17
fe
fa
19
04
0d
00
ff
ef
fc
00
ff
f0
fe
ef
00
1a
05
14
ff
ff
fb
fe
fe
03
08
f4
0d
0c
fe
f5
01
03
01
18
fd
fe
0f
03
fe
0d
ee
f9
02
fd
02
f5
fa
03
e4
04
0e
ff
ec
fe
05
0b
ff
01
03
00
fd
fc
00
ff
f8
02
0c
03
f9
fe
10
04
f4
00
0d
03
fc
0f
ff
12
00
fc
f9
03
05
07
fd
f8
fd
07
fd
15
f1
0c
fe
19
13
e2
0b
01
02
df
16
05
e8
01
f5
e9
f4
e9
09
fd
01
2d
01
fe
fe
14
fd
04
f7
e9
06
fd
f5
fa
02
fe
ec
06
e5
05
18
ff
11
0a
fd
01
00
02
f0
fd
06
04
f5
03
fd
0f
07
fc
ff
f7
01
fe
f2
00
fa
05
ec
02
02
0f
fe
fc
ee
fe
10
fb
1b
05
04
02
ee
f3
02
00
ff
06
18
0a
04
ff
fe
00
ff
06
03
01
01
07
14
09
01
0e
fd
ff
fd
f0
0d
0d
ff
00
03
03
00
f9
f2
fd
01
01
f6
fe
19
01
ff
07
01
02
02
fd
05
0a
16
07
00
fc
fd
f8
da
0a
07
f0
05
1d
02
0b
f8
11
fb
f9
fe
00
00
01
0f
fd
f4
0a
05
01
ea
01
0c
00
fe
ff
00
21
e5
f5
e6
01
02
f9
f2
fc
04
f9
fd
0a
02
11
04
06
f1
fe
05
05
02
07
0b
e2
11
29
ff
eb
ff
00
00
d3
ff
eb
0a
03
fe
04
f6
02
fe
fb
00
04
01
ff
17
02
07
00
08
02
03
ee
01
03
ff
02
00
19
fd
01
2b
01
17
02
fe
03
e2
fd
fa
03
05
fb
f3
fe
0c
fb
f4
e2
0c
fb
08
00
fc
12
ff
fd
04
0b
12
0f
fc
1e
0e
0c
fd
00
fa
02
ff
f6
fa
01
0e
01
fc
10
fe
08
00
13
01
08
04
0c
02
02
06
05
02
f6
02
f7
06
00
f4
fe
ed
06
f0
03
04
fa
ff
02
14
fc
0c
07
fa
ff
df
fe
ff
0f
0a
ff
08
0e
02
02
fe
02
fd
00
f2
fe
03
16
02
f8
02
ff
08
03
03
fd
f9
01
0a
f0
01
fe
02
f4
03
05
fd
00
ff
fd
fe
04
d5
fd
fb
0d
fe
ed
fc
ff
fc
ff
fb
fd
ff
0a
f1
00
03
fe
11
f8
f3
05
fc
2a
fd
12
fc
04
0a
02
fe
fe
02
f9
02
01
00
ed
01
fe
05
f8
17
0b
01
ea
1f
29
03
07
28
10
06
fd
01
02
1a
14
f4
00
f8
09
fe
fc
13
04
04
00
01
0f
fd
00
05
fd
25
fe
01
f1
f0
00
00
e1
01
13
02
08
05
19
07
01
01
00
06
04
07
db
fc
0b
fc
14
04
ff
02
e1
03
db
e6
03
ff
02
e0
ff
ff
0e
00
eb
13
02
ef
00
f4
04
d4
fd
02
da
fe
01
ff
02
01
10
ff
00
14
01
07
01
df
05
f4
00
03
ff
04
eb
fd
07
f5
00
fc
f8
0f
fd
09
e7
01
00
01
f8
e4
01
02
07
00
1e
10
02
0c
ff
fe
00
0e
f1
14
05
15
1c
06
fa
fa
03
07
f5
ff
ff
00
07
02
fd
08
f9
fd
fe
fe
07
18
02
1d
01
ef
02
ff
ff
0f
fb
00
fe
f5
00
e2
21
0b
03
fc
04
ff
0f
0a
00
0b
0c
03
01
e9
03
db
03
e5
18
00
02
05
f0
08
02
de
e8
0f
05
0e
ff
00
fc
04
01
ff
05
0a
02
ff
ff
00
01
01
06
0d
04
fd
1d
0b
0b
06
fd
02
00
02
f3
ff
04
04
fe
fe
fe
e3
08
f0
ff
04
07
f9
f2
1c
0e
06
04
00
04
ff
18
03
04
03
09
ff
ff
00
0d
fd
f4
fe
02
08
03
00
0a
07
f0
f0
00
fc
fe
f6
15
13
fd
02
f7
fe
04
fb
ff
f9
fe
0e
e5
ff
eb
f6
03
e7
01
02
fa
00
03
00
08
14
08
00
f9
07
04
05
ff
fe
01
0c
fe
08
05
f1
10
02
e3
fe
ff
fc
f3
01
ff
fa
09
04
08
0e
13
ff
00
fe
0d
0b
00
0c
03
00
fd
12
01
fe
01
fe
00
fc
03
02
fd
fe
ff
f2
00
1a
fe
fe
02
04
ff
f5
04
1b
15
fb
ea
f2
02
f7
0b
04
01
f5
00
fd
01
01
01
ff
03
fe
03
05
10
f5
20
fe
00
fe
16
09
0e
f6
fc
fe
09
03
12
ff
ff
00
0e
fd
01
01
f4
fc
01
ff
00
04
ef
16
f8
f7
fd
df
ff
ff
0f
f6
02
0c
1b
02
03
fd
02
f4
ff
03
00
f2
00
03
15
fe
00
0a
02
00
fd
09
03
fd
fe
f7
07
00
0d
0b
f6
03
ff
01
ff
fb
14
1e
00
ef
06
ff
fe
fe
07
11
ea
fe
03
00
00
00
00
fe
03
00
f9
08
ea
01
fb
01
05
ff
0a
ed
03
fb
03
00
00
fb
0a
04
02
fe
d9
10
0a
10
08
fe
f8
04
ff
05
16
08
0a
0f
d1
fc
02
00
01
fa
05
fe
ff
0c
05
04
07
f3
0a
02
00
fd
fe
02
0e
fa
02
f6
e3
03
fd
0f
01
ee
01
06
d9
fc
0b
06
00
ce
00
ff
f8
f9
01
00
09
09
00
ff
f6
fe
05
ff
fe
02
00
10
00
10
05
08
00
01
04
00
ff
04
00
f8
fd
10
04
02
ed
07
f7
fd
12
fe
f8
1e
01
ca
ff
d6
03
0a
fc
fb
fe
ff
fe
ff
01
04
ae
02
fe
03
03
03
02
07
ff
f7
00
f7
00
ee
09
0e
25
fe
f8
fb
01
0d
02
f9
fe
fd
fe
f9
e4
fc
1f
fd
f9
ff
20
11
e8
04
fe
fe
e5
f5
dd
01
00
01
f3
f5
ee
dc
f1
01
e9
01
06
00
fb
04
00
08
ff
ff
d1
0c
0c
f8
fd
ff
03
fe
fc
2b
fe
01
02
fe
00
ea
00
fe
15
05
03
10
fb
fd
ef
05
fd
d6
1a
fd
ff
f6
00
de
fd
f6
e4
00
08
08
1e
00
fa
fd
e6
e0
1f
17
06
03
e8
fb
ff
01
09
ef
01
01
fe
01
fd
04
00
17
03
ff
f8
1a
f9
fe
fc
ff
00
fe
07
e3
f3
d6
00
04
01
c9
16
f5
00
0c
00
1c
08
0f
0a
04
eb
00
f8
00
01
0e
05
08
fa
00
00
00
0c
f4
fe
00
13
fe
03
fe
0e
f3
16
e4
ff
ff
02
fa
08
fe
fc
e4
04
04
fe
f9
01
0f
ff
0e
08
ff
f1
07
08
02
02
01
fe
ed
fe
02
0f
0d
07
fb
0d
06
04
ff
02
02
02
06
fd
f2
02
ee
fa
fd
f8
01
02
01
fa
fd
02
04
ff
00
fb
00
0c
fd
f7
fc
09
03
fe
19
00
eb
01
05
04
f8
04
02
fe
fd
03
fe
f3
02
02
05
fc
02
fe
02
01
04
ff
f5
02
05
ff
0b
f5
04
05
06
fd
0f
00
f9
04
01
fd
01
f6
06
07
f2
f6
ff
20
ff
f1
fb
ff
01
08
f0
06
ff
fe
fc
01
fd
0e
0b
08
00
fd
03
ed
05
f6
02
00
fb
fa
03
f5
06
fa
f9
fd
dd
01
f9
ee
f2
fe
fe
fe
fe
ff
f7
ff
f7
05
eb
02
09
02
ff
11
fd
fc
0e
fb
fe
ff
f5
ff
0d
05
fe
02
fb
09
fc
f8
fc
fc
f6
16
f9
fd
e6
00
0d
01
fc
ff
05
f8
fd
05
06
01
02
04
03
08
06
00
00
03
ec
0a
00
04
02
fd
fc
0b
0b
04
f5
ff
01
00
f9
0c
fe
02
f1
eb
f9
ef
f8
05
f2
fc
02
fd
fc
fb
09
fb
18
18
fc
fd
04
fe
12
09
06
ec
04
06
fd
fa
0e
f7
e1
fe
00
ff
f8
ff
0e
01
05
0a
03
05
06
00
07
02
ff
eb
03
01
0e
03
f1
fe
fe
08
05
09
03
05
02
f2
01
05
03
1c
f5
00
ff
02
0f
00
0a
f6
f5
11
fa
f4
00
00
fe
13
02
fd
20
07
03
f9
07
fd
f9
e8
ff
0a
19
fc
f5
fd
fe
ff
0e
00
fd
18
02
00
02
ff
ff
00
04
fd
fc
ff
19
01
de
fc
1a
02
07
00
ed
10
02
01
fc
07
06
f6
1a
ff
e7
01
05
e9
03
ef
fa
f8
19
e7
01
04
06
0b
0a
00
01
eb
04
0f
14
03
0c
0d
10
ff
fd
f6
01
17
ff
f2
01
14
00
03
17
f1
01
07
23
0a
fa
06
f8
03
e4
0c
fe
fd
f9
0a
ff
fe
06
01
02
26
32
02
1b
fd
02
1a
04
02
f4
eb
00
02
09
01
ec
fd
f8
08
02
ee
f5
de
ee
00
f1
ff
09
fb
f5
05
f4
f9
0b
00
02
e6
f4
0a
ff
02
01
04
fb
12
fb
01
fe
fc
08
07
03
fd
fe
05
01
f5
fc
04
18
ff
fe
fd
05
f7
e2
02
0d
e3
fd
07
0b
18
15
e6
03
02
04
1e
11
09
04
0a
fb
02
fc
05
e6
fa
fe
f3
ee
00
fe
1d
05
d6
13
ff
fe
fe
0d
22
00
02
0b
0b
fe
01
fd
03
ef
01
f6
fe
00
0b
03
0c
01
fe
00
fe
03
ff
00
ef
19
03
03
ed
06
f0
10
fd
02
04
0a
fa
fb
00
f7
ec
00
0c
04
02
02
ed
fe
07
12
ea
02
f6
00
0f
f7
e7
01
ff
13
04
fb
01
d3
fe
16
ff
f8
11
05
04
fd
fd
05
ed
02
00
cd
03
ef
fb
07
01
f3
fe
06
02
ff
ed
ff
07
fb
01
02
f2
03
02
0a
19
fd
01
00
0a
01
1d
06
fc
fc
bc
05
e8
05
01
02
e4
f5
fb
fa
ff
0e
22
06
f0
1d
05
f7
ab
01
15
fe
fe
fe
fe
eb
f8
fe
06
f4
16
f2
ff
25
fb
08
fb
f2
00
f8
14
02
02
e7
fc
0a
09
fa
fd
04
03
ff
e3
06
ff
fa
0d
02
05
e4
fb
e5
fe
07
fb
02
f2
10
1e
03
ff
15
e6
eb
1e
14
04
18
f7
07
fe
fc
22
ed
f5
03
02
00
ff
00
fe
0f
05
00
1d
15
fb
fd
0d
04
05
01
04
e7
f5
04
ff
ff
00
d4
1d
da
fc
f9
f9
11
e6
ff
09
e8
06
03
fd
ff
18
f9
fe
eb
05
fe
fe
00
fa
f8
da
ff
e4
ef
ec
01
f4
dc
f7
df
01
ff
00
f3
e9
fb
fe
11
f3
fe
02
f2
01
f1
03
21
f1
01
22
08
11
13
00
fb
f2
f7
00
fe
07
09
09
04
fe
ef
0d
05
03
f9
fe
14
02
16
ff
02
ef
ff
08
fb
01
02
fa
fd
03
2f
17
00
04
0d
fd
fd
f8
fd
e8
13
00
1b
01
eb
fe
07
00
fe
ef
fb
03
00
02
fb
1d
ff
00
09
fc
05
fe
ff
ff
e8
fc
e6
00
05
db
07
db
e8
fb
0c
fb
09
01
ee
11
01
1c
05
f8
00
0b
06
12
00
ec
fd
14
04
fd
01
19
ec
03
fb
04
01
0d
fb
e9
f9
13
06
f4
fd
06
fd
fc
ff
fa
01
03
ff
04
fe
03
fd
03
17
06
0e
eb
f7
ff
05
11
01
00
04
01
f4
e9
04
03
f9
01
01
fb
03
fb
19
e8
01
00
f5
fe
0e
fe
0e
f5
ff
ea
02
f4
ff
fd
07
f9
04
f7
01
05
21
03
04
04
fb
f4
fc
21
01
fc
00
01
fe
03
e5
02
fd
05
06
ec
00
17
fe
01
00
fe
0d
05
0b
01
00
00
fc
f8
ef
03
06
f7
07
e6
08
15
02
0e
ff
05
00
12
0c
07
08
14
fd
ff
00
03
f8
02
02
fc
fe
14
01
fd
04
f7
fd
fe
02
fd
15
05
fb
fd
fb
0f
00
03
0d
02
04
fe
02
f9
ff
f6
06
09
f0
ff
fd
00
fe
01
03
00
13
fd
02
20
08
f0
09
fa
fd
01
02
fa
f4
fc
1d
fd
02
e8
06
01
00
11
fc
0e
04
0f
fd
06
0d
08
05
fd
01
07
05
03
15
ff
fc
02
f9
ff
fa
03
fd
ff
02
fe
fc
da
ff
04
06
01
e5
00
04
01
06
fe
00
00
1f
03
fb
0b
fd
01
06
09
26
fd
0a
f4
00
d7
fa
f2
e8
ff
d5
e6
fc
ed
03
fd
06
01
02
fb
0f
f2
19
ff
02
03
05
20
26
f6
fd
f1
03
13
fe
f1
fd
02
e1
f6
ff
f6
0f
fb
04
ff
f5
0a
f0
04
ee
fb
09
f5
03
f7
f7
00
0f
01
01
01
f4
ff
ff
e8
fa
01
02
14
fe
03
0a
00
13
01
f7
00
fe
01
b9
11
f8
ff
10
11
06
fc
03
fc
fe
fa
fe
fe
03
d6
06
05
fb
fd
fe
01
fe
fe
12
ff
01
01
0c
05
00
d7
ff
fe
00
04
f5
13
df
fd
03
fe
05
fa
dc
03
07
13
ea
f8
03
0a
0d
ff
01
04
fe
10
fe
ee
0b
05
fd
ff
00
0b
0e
fb
02
0b
f5
00
01
00
d5
0f
05
03
05
04
05
20
f3
00
f5
f2
fc
fe
10
01
fc
fd
08
10
fc
04
04
ff
0a
ff
00
0f
fc
ff
00
f5
f8
05
02
0c
00
01
0c
fa
fa
01
18
fd
07
f8
fc
fd
fd
fb
06
03
00
1d
01
07
e8
12
02
e0
f7
02
00
0c
fa
13
05
00
0a
ff
fb
05
15
ff
01
d6
fa
00
01
03
00
fe
ff
03
f9
01
ef
04
00
01
25
03
04
fe
01
fa
fd
fa
14
03
03
01
f7
fc
f9
f5
02
02
f9
0e
05
e4
f2
0d
00
ea
f5
e2
f7
00
fe
ef
cc
d5
07
01
07
fa
03
0b
e2
01
fb
04
02
12
00
f4
00
02
0a
0c
fd
e5
08
fc
e8
00
ec
05
f6
f7
ee
00
f0
f6
ff
01
f5
ff
09
15
e7
fb
1d
00
ff
14
fc
00
fd
01
01
04
f7
ff
29
01
ff
0a
00
f7
f1
fc
eb
00
f7
02
fe
f3
c3
fe
ff
f7
05
00
00
fc
00
01
00
05
ff
ff
03
fa
ff
01
01
08
f6
fc
fb
0f
f9
02
02
13
03
f9
06
02
ff
03
04
05
06
01
18
f6
08
19
fc
f1
0f
0b
05
02
00
fa
ec
0e
1a
13
01
fe
03
13
fe
e0
04
0b
f6
19
fd
18
06
08
e0
02
ff
fd
fc
fe
f1
05
04
07
fd
04
f4
02
03
03
f8
d1
05
f2
fc
f6
04
ff
fb
f3
12
02
fe
0f
00
fe
06
c4
f4
f6
0a
fc
fe
fd
13
ff
14
fa
ec
dc
00
fe
04
05
04
f6
fd
0a
11
f8
fd
fe
ed
0a
fe
08
00
ee
02
02
c8
fe
16
01
f3
fd
03
08
fd
04
01
ff
01
0b
00
03
12
fe
f3
fe
06
00
fc
03
10
fd
fa
f5
f1
1b
02
fd
fa
0f
fe
03
05
c8
02
0f
fb
17
ed
e3
08
10
02
f5
f3
14
04
00
00
00
17
f0
f6
01
fc
fa
08
07
18
1e
04
cd
fb
0f
fb
13
ff
00
0d
f3
04
f8
f9
09
00
ff
22
fc
0b
08
10
03
fc
f4
01
fc
fb
ff
ee
08
03
ff
fe
00
04
fb
04
fe
ee
fa
00
00
1b
fe
f5
01
f1
fe
fd
11
06
0f
0b
fe
e9
10
e4
1f
18
fd
e6
eb
fe
fc
ff
e0
09
e9
00
01
01
04
ff
f4
dc
fe
02
0b
f2
0a
fd
dd
ff
fb
00
00
e8
07
f2
fc
fe
06
ec
1d
17
01
04
03
e8
fb
05
10
06
03
01
03
06
fc
06
f1
28
07
ff
ff
00
e7
fe
12
fc
fd
fc
fb
01
f3
19
09
ea
fb
02
fb
12
d0
02
04
f7
da
00
01
d9
fc
fd
03
26
e4
00
e8
f5
02
02
fe
02
f7
e8
fe
00
fc
06
00
fb
12
fe
fc
fd
03
00
05
05
fd
03
f7
c7
2c
ff
fa
fd
00
03
05
02
cf
10
fc
02
f9
e3
ff
ff
f1
03
1a
0e
02
1b
00
08
03
08
00
ff
ef
fe
fb
fd
fe
00
12
04
03
bf
05
ef
fe
f5
02
fd
ff
0b
02
02
f1
e5
03
18
fb
04
fa
d8
fe
fb
f5
02
fd
01
fc
fc
03
0f
fb
01
07
0e
04
fa
fd
07
d8
eb
1e
1b
06
f6
fe
fb
fb
09
e5
f9
00
fd
d3
fe
e4
00
fc
12
0e
fd
06
fd
02
d0
03
f9
fc
e0
b4
ff
00
ea
f5
00
03
0c
ff
fd
0e
d7
fe
0f
03
00
05
04
fd
11
f1
fd
01
f5
00
ed
02
f6
0a
01
07
ef
df
d7
fe
0a
f9
ee
02
03
ff
e3
ea
fc
fe
00
ed
15
ed
00
02
ff
00
ff
f4
f6
01
fe
14
f9
d8
fc
1a
02
fd
01
fd
eb
f8
11
00
01
03
fe
f0
f2
ff
06
f3
00
e6
05
11
fc
d4
00
02
ff
06
0a
eb
d9
04
04
01
02
fa
f4
f8
ff
e2
f7
f0
fc
15
f0
ed
11
ff
00
ff
e5
0e
fb
02
f9
02
02
fd
ec
01
f9
00
1a
0f
ff
ed
d4
f7
ec
fd
03
10
03
05
ff
0c
f8
f6
03
f4
fc
01
1c
02
04
fe
f6
03
0a
f1
d3
df
fd
09
02
ff
ff
fe
fc
fa
02
0a
03
ff
f6
15
ff
e1
ff
08
fc
02
f9
02
e2
ff
04
00
03
28
05
01
fe
ff
03
11
fe
fd
03
02
06
03
0b
ff
0f
02
f2
02
04
fc
ef
e9
15
ff
05
08
21
ff
0c
ed
01
fc
02
e0
02
04
0b
e7
01
1f
08
01
e4
00
01
09
03
03
17
fd
f8
f0
ff
1b
08
e9
01
ee
fd
fd
fe
0a
03
fe
19
0b
fd
da
2c
06
eb
fe
0d
05
02
06
f3
01
04
fb
03
01
fb
02
0c
06
f8
02
0f
fe
ff
08
f9
ff
14
00
fe
fc
12
01
18
09
08
1b
fe
0b
f9
02
04
01
f4
e1
01
09
1d
01
ff
e5
11
00
02
08
0a
02
00
fe
01
00
fd
05
e8
02
00
09
0b
ea
fd
01
03
07
fd
04
fa
12
fd
02
fb
ff
16
10
01
04
1a
fb
1c
f4
0b
f1
f6
f9
06
fc
00
fa
07
00
05
0b
00
fd
00
06
0c
00
01
1a
fe
fe
fc
05
30
ef
12
00
05
01
f3
ff
ff
fe
f5
18
fb
fc
fe
01
0d
01
19
ef
fc
11
06
0a
d4
00
ff
d5
fd
00
03
f5
01
06
03
ef
07
07
1e
02
fe
02
00
06
0e
fc
f0
17
f7
08
03
01
ff
05
03
21
eb
07
00
f8
cd
06
00
ea
fd
12
ff
00
f2
00
9e
02
0c
02
ff
d6
07
00
fe
fd
00
0f
01
03
04
04
05
02
06
fd
ff
fe
fe
fc
0c
01
15
28
0d
fb
08
ff
0f
02
15
08
fb
ee
00
0d
09
00
fd
f8
00
04
01
e9
e6
03
03
d4
e8
e4
1d
04
f6
0f
02
16
13
04
02
08
ff
fe
ff
06
ff
02
f3
08
fe
1b
16
fd
c6
05
04
07
06
0e
f2
fb
f8
1e
fd
01
f1
00
0a
00
10
fc
02
04
ff
0d
00
00
17
f5
fd
03
10
02
04
05
13
bd
ff
db
0a
1c
0d
02
04
fb
01
0a
1a
03
0d
01
01
01
01
fa
03
03
fe
ff
00
00
fd
0d
fb
ff
ff
0d
01
ff
02
09
01
01
ff
0d
19
08
05
00
ff
00
f9
f9
13
00
f2
02
ee
eb
f5
de
16
e7
ff
01
fe
ef
06
0b
06
0e
fd
00
01
ec
0c
13
00
02
e3
fc
fd
09
f8
fe
c9
04
00
02
ff
e9
12
00
06
e1
02
04
fe
00
bc
02
01
d5
ff
e6
f0
fd
1c
01
02
fd
ff
04
01
06
c7
0c
09
cd
03
24
fd
00
fd
ff
ef
fc
10
07
04
12
fd
03
00
fd
01
0b
01
fc
fd
23
00
1c
de
13
05
01
02
eb
17
00
01
01
e6
fc
e6
01
fd
03
fe
ff
ff
01
fe
fa
fa
01
0c
03
e6
01
dd
fe
f7
00
fe
fe
fb
07
0e
e8
f6
0c
f5
eb
0c
01
01
09
fd
fe
00
1c
04
13
fb
eb
fe
ee
02
04
ec
00
00
08
e9
07
f6
fd
0a
f3
00
0a
e2
e3
f7
0b
03
fa
03
f6
02
02
f6
04
01
21
e7
05
eb
06
11
00
12
05
00
fc
10
fb
00
02
fc
05
08
f3
01
fe
08
03
fe
12
ff
02
0e
ed
03
00
f2
fd
e9
fc
0a
dd
ff
fe
02
d4
07
02
ee
03
11
13
20
04
13
fa
fc
04
fe
03
f0
1b
ff
fd
fe
ff
05
09
0f
05
04
f8
0a
f9
fd
01
ff
04
fe
f9
fa
03
1b
01
ff
05
13
26
10
fe
1c
07
37
0b
f7
e9
e6
07
04
fd
00
00
11
08
01
00
fe
05
fc
e4
16
00
00
f2
0b
f4
01
ee
f3
1f
04
ff
05
fe
06
0b
f7
01
2c
ff
ff
ff
1e
01
f6
04
0b
f6
00
09
de
06
e8
fe
03
e4
06
00
ff
ec
fc
d7
fd
08
f9
08
eb
00
fd
01
f3
01
c3
f1
15
1f
fb
01
fc
00
fd
fd
02
09
0e
fa
02
0f
fa
fd
fb
0b
fd
fa
fa
fe
02
fc
09
03
0d
03
fd
fd
03
00
fe
ff
03
fd
fc
00
eb
01
09
00
f0
00
cc
02
07
00
10
0a
f0
ec
00
fc
04
fc
e4
04
ec
06
01
e3
01
ee
fb
17
fb
ed
fe
bd
f1
db
13
03
02
f8
fc
0a
13
fc
fe
08
0d
34
1a
07
fb
ed
05
0f
05
0f
03
fe
f6
08
fd
fc
ed
04
0e
fe
0c
01
fe
01
f9
fd
16
eb
02
fe
fe
ff
06
08
f1
03
ef
01
00
f2
04
04
0f
fb
fc
fd
f6
f9
1a
05
ca
0d
ff
13
13
e7
06
00
03
08
15
15
c6
00
0a
13
01
00
00
08
0c
08
fd
01
03
00
00
fd
0c
ff
04
0b
14
0b
00
06
ff
0b
04
03
07
09
fb
f7
01
fc
0e
0c
fc
00
fe
04
06
03
04
07
d5
00
ff
00
fc
0a
fd
f5
e9
fc
ff
00
fe
0e
de
fc
ff
f2
f1
06
fe
eb
16
01
ff
fc
fe
fc
f4
fb
fe
04
f9
ed
01
06
09
fe
1c
fe
10
eb
fb
ff
00
fb
10
ff
ff
e3
ec
02
fe
e5
dd
d3
fd
ff
f6
fb
f3
fe
00
00
f2
fc
0f
ef
f2
0a
00
ef
03
02
00
13
fe
ff
02
22
fc
f8
15
e7
00
fe
01
fa
0f
02
00
03
02
00
01
02
fe
fc
01
05
01
fd
01
1b
03
01
11
02
16
00
f2
00
e7
02
00
fc
12
04
00
de
0c
06
fa
ec
20
01
e7
0a
03
1c
00
19
e9
24
fb
08
01
f1
04
04
fd
fc
01
0b
24
05
10
fd
04
06
f5
e1
08
08
fd
0d
fc
02
02
07
fe
00
03
05
00
0c
fb
f6
02
02
05
fe
f9
1a
f8
ff
f5
12
01
fd
f2
fe
06
eb
de
ff
01
03
ff
01
02
04
0a
f9
ff
02
dc
02
fc
fe
ed
fd
00
09
fe
03
16
fb
f4
00
09
11
e9
01
11
ed
07
02
fe
12
05
0d
fd
04
fd
ff
01
fc
02
04
00
fa
cd
f5
fe
eb
03
ff
ff
f8
ea
05
12
02
03
ff
1d
06
ea
01
14
05
1e
1b
06
f5
0a
12
fd
01
00
ff
11
fb
10
f3
01
03
05
f3
ff
f8
01
ef
0d
05
01
05
eb
05
0a
fe
fd
fd
1b
f2
0d
fe
fd
fe
fc
ff
03
fe
15
ff
08
16
fc
f7
f4
f2
15
01
03
05
0d
00
fd
e9
20
f4
ff
02
fa
02
13
05
02
fb
04
fc
20
0c
fd
0f
02
f7
02
fd
fe
14
ff
0e
01
00
01
eb
fe
de
06
0d
04
06
fa
fe
ed
03
fd
ff
ff
fe
05
18
05
fe
fb
ff
03
0c
04
fc
d0
02
f1
fe
ff
ff
ec
00
ff
00
01
18
04
07
fe
03
05
f7
12
fd
16
04
03
ed
02
ce
07
f2
0a
df
05
e0
f7
1c
fd
02
fe
09
ef
ef
01
01
13
10
15
30
04
03
03
ee
fe
fe
fd
01
01
02
03
05
fe
f3
11
03
06
08
f2
04
f6
18
f9
00
07
fd
01
03
01
fd
1f
10
f0
f9
f6
00
04
0a
04
ff
10
de
01
fd
24
00
12
fa
fa
da
01
0c
e8
ea
09
03
ee
fc
07
f7
f7
fe
e7
f4
07
fe
fd
dc
06
08
fc
04
03
00
fd
01
fa
04
fd
13
02
01
ff
11
fc
00
02
f7
f9
fd
06
fc
00
05
12
f9
f5
00
11
05
ef
1c
fd
03
05
fa
fc
02
01
0e
f3
0e
04
0e
ff
fe
fc
ea
e7
fa
03
0f
01
f8
00
fa
ec
07
ff
01
fe
01
fa
fb
21
fa
24
03
02
ff
24
fe
f8
00
00
dd
fe
f7
f9
0a
f8
00
02
17
09
02
02
dc
ea
ff
02
04
06
09
ea
01
fc
ff
04
ff
0c
02
f3
07
04
0b
fe
fe
01
00
00
05
f4
14
04
c5
00
01
fc
9e
fe
06
08
fe
18
00
00
fd
01
04
fa
0a
fd
03
ff
00
00
fc
07
04
f8
07
ef
ff
0c
01
de
fe
0d
fe
fd
f9
e5
f5
07
06
04
ef
e8
00
f0
f8
00
18
06
0b
fb
fd
e9
0f
03
1a
01
24
d8
02
00
e0
ff
f2
fc
04
01
0a
fd
f0
08
10
fd
3e
fe
c2
fd
0f
ff
00
13
fb
01
03
f6
04
0b
02
07
fd
e1
df
0a
00
12
32
04
02
ff
00
ea
06
14
00
13
ff
01
fc
04
03
e3
f7
ff
01
ec
02
ed
00
03
10
01
13
03
11
e6
02
fe
f9
13
f5
c9
f5
cb
14
03
01
fc
07
f2
08
03
fe
00
ff
fc
03
1b
00
fd
0f
f4
0c
fd
f8
02
fe
02
fd
14
16
ea
02
00
fe
12
07
d3
00
12
e9
e5
08
fe
ec
0c
0a
01
fc
fc
05
04
0a
02
ef
03
00
00
00
15
0e
00
e2
ee
16
fe
da
08
f1
f0
ff
01
01
15
0c
0e
fc
0e
0f
01
01
f9
fe
04
ff
fa
f2
02
df
f8
ff
f8
01
fd
02
09
00
fe
e7
2f
11
06
fc
10
17
fd
ff
01
fa
20
03
19
f8
0f
0d
02
f7
ff
02
04
20
03
00
10
24
00
15
06
09
00
0e
01
e8
01
03
18
00
02
ff
ee
02
fe
22
04
00
fe
ff
ff
07
00
ff
f4
ff
0f
00
0f
ff
03
ff
00
02
2c
f1
fd
e8
fa
fe
05
f6
15
01
15
06
02
04
01
ef
f9
2e
e5
fc
00
17
15
f8
f8
05
ff
fa
0c
01
07
02
09
09
0f
1f
07
05
02
f7
01
0e
ff
12
01
fd
07
fd
01
0b
12
12
10
06
0d
02
e9
f4
0a
ff
16
0e
fe
00
e7
02
02
0b
ec
fe
e6
02
00
10
06
fd
16
02
02
00
1b
ff
f2
06
e4
07
fd
12
fd
10
fc
fc
e1
f3
14
17
e2
01
ef
e3
04
03
05
ec
02
04
02
03
01
01
ff
07
02
05
01
06
fe
08
f9
08
00
07
00
eb
09
13
fd
03
03
00
ff
14
07
00
07
00
11
0a
1d
0a
0c
f5
fe
00
02
0e
12
13
fa
0f
fb
ff
01
fc
13
fa
fb
03
08
03
ff
f6
d7
f2
f8
04
00
01
10
14
ff
00
f6
f9
fe
05
fd
fe
ff
00
17
16
02
eb
1f
0a
0c
fe
01
f0
d9
fe
05
ee
0c
f0
fd
0f
03
0a
04
fe
02
01
0e
02
0f
08
03
11
fb
eb
fe
01
02
04
02
01
0d
f2
05
03
e3
ff
ff
02
fd
07
f5
01
e2
fd
0a
ff
fc
fd
02
05
00
01
ff
02
02
fd
07
04
14
fc
fd
ff
f7
fe
f6
01
04
fc
11
0a
fc
12
02
05
02
e8
0d
01
0c
07
fe
09
00
02
ff
08
fb
00
04
17
f8
ec
05
02
02
f2
1f
0b
e8
ff
f7
e9
f7
ee
07
fd
fe
29
00
fb
ff
26
01
ff
04
ff
fa
18
db
f6
f7
03
f0
0a
d7
09
15
01
0f
10
02
00
f7
04
f7
0b
02
01
06
fc
01
13
08
ff
e8
eb
fc
03
08
00
00
03
ff
00
01
08
00
ec
01
ff
e2
08
00
ff
09
00
12
eb
00
01
fc
11
1a
05
ff
03
ff
ff
ff
04
1c
05
fd
f9
00
00
fe
0f
ff
07
00
f7
f7
04
09
ff
01
ff
12
fa
f8
00
ff
14
ed
fa
10
fb
ff
0b
00
05
fd
e6
fc
03
10
ff
fe
02
fb
fc
f8
ff
00
ea
02
1f
01
0d
11
1b
fd
00
02
ff
12
06
fa
00
03
08
04
ff
eb
03
13
fe
fb
09
ff
19
0e
ef
f7
00
00
01
06
ff
ff
f4
fe
fa
04
12
01
01
fd
fc
fd
fe
fe
02
fc
fe
01
fd
01
01
00
00
fb
fb
01
00
ff
01
00
03
fb
fe
01
01
fe
fc
01
fa
01
fc
fd
01
05
02
f9
01
fe
01
fe
05
fe
fc
01
fb
ff
fa
fe
00
00
ff
ff
03
fe
ff
fb
00
fd
01
00
fa
fe
fd
00
01
02
03
ff
fc
03
fc
00
ff
fc
fd
ff
ff
fe
ff
fc
00
ff
fd
fc
fe
fd
ff
fd
fc
01
00
fc
fc
fe
fd
00
02
00
ff
fd
fe
00
fd
ff
ff
00
fe
fe
03
fd
02
fe
00
fc
03
fc
fd
01
01
fc
fe
fd
fd
fb
00
fd
01
fd
fc
fe
01
00
00
00
fd
fe
fe
02
01
ff
fe
ff
00
01
01
fd
fe
fb
fe
ff
fe
fe
01
fb
01
fa
01
fd
f9
ff
06
fb
03
03
05
fc
fd
ff
02
00
fe
fa
fc
03
fa
ff
ff
ff
00
ff
00
fe
01
00
00
01
02
ff
05
fb
ff
04
04
08
ff
fe
ff
ff
fd
ff
02
04
fc
01
fe
02
fc
ff
fd
fe
fc
01
fd
fd
00
01
00
fe
03
fd
ff
03
00
fe
ff
fe
02
00
01
00
ff
fe
f8
fe
fe
00
00
fc
ff
f9
ff
fe
fd
01
03
fd
fd
fc
fd
03
02
ff
00
02
fe
fe
ff
02
fe
00
fc
fb
fc
fd
fb
01
fe
fe
02
03
02
01
ff
01
fd
ff
fe
ff
ff
03
fc
00
fd
01
fc
ff
02
fe
02
fd
fd
02
03
fd
ff
ff
04
00
fd
f8
00
fd
00
fa
fe
00
00
fd
00
fe
01
ff
fd
fe
fe
fa
01
fe
fe
03
fa
01
fd
04
04
02
ff
fc
fe
fa
00
02
01
f8
fc
fa
00
ff
fc
02
01
02
01
f9
01
fc
00
01
00
fa
02
02
00
03
fb
fc
ff
01
ff
01
fd
fa
ff
fc
01
02
01
00
fd
fd
03
fc
ff
fe
ff
ff
06
02
fd
fc
03
ff
ff
01
fd
fb
02
00
fb
00
00
ff
00
fa
01
fe
fc
ff
fc
ff
fd
01
fe
01
00
ff
fd
fb
00
02
fb
00
04
04
ff
ff
05
01
fe
fb
ff
00
04
00
fe
00
fc
fd
fe
fe
fa
00
03
04
04
fa
ff
fd
02
01
02
01
01
fd
03
ff
fc
02
00
fe
fd
00
fb
01
fe
fd
fd
01
fd
03
fd
03
00
00
fe
fa
06
f9
fb
fa
fe
00
fd
00
01
01
fe
fc
fb
00
01
00
02
fe
ff
01
ff
ff
02
f9
ff
f8
fd
ff
fe
fe
fd
fc
00
ff
03
ff
04
fe
ff
ff
fe
03
fd
ff
01
04
01
04
03
f6
fe
f6
f4
ea
ec
f6
05
04
00
ff
f9
ff
e5
d0
0c
ff
f6
f3
07
ff
d5
05
ed
0b
fc
13
fe
f1
03
10
02
fe
02
03
00
fd
00
fd
0a
fc
04
eb
02
ea
fe
00
ff
ff
04
01
03
e9
ec
d6
04
15
f8
00
0f
04
ff
1d
fd
02
fb
fa
13
ef
06
fc
14
01
f9
0a
14
06
00
ff
ef
f6
06
0e
00
06
fe
05
e6
e0
00
ff
fc
ff
f2
fe
0d
ff
fc
ea
0b
fd
eb
1c
15
0d
03
1b
ff
ff
01
e8
02
f7
f8
fd
02
04
fe
e8
03
fd
f9
f9
fb
fc
f5
fb
01
fa
de
00
03
f6
01
e2
00
07
e4
fc
f5
06
12
fe
fb
f2
f5
fe
15
28
04
17
04
11
fe
ff
05
11
ee
01
fb
02
01
04
f9
0b
00
fd
10
11
cd
fc
f6
fd
02
fb
ff
25
01
fc
02
fe
01
04
2f
05
02
07
f9
fe
f2
09
00
fd
07
fe
ff
00
0f
08
00
0a
0f
00
06
03
fd
e5
07
00
1e
15
f8
04
e0
f5
f8
ef
00
ff
ff
ef
0a
fb
00
05
0f
00
00
fe
00
f5
05
14
e1
04
0c
04
09
19
fe
03
07
fe
fe
fb
f0
16
eb
ff
df
00
ff
d7
00
fe
fe
07
00
16
e4
ff
d5
00
04
04
fe
02
2b
ff
f4
14
f4
ff
fd
09
da
f8
fb
01
03
13
01
fa
00
17
fd
0f
ff
00
d5
02
fe
02
ff
fe
fc
ff
00
1c
02
21
02
fc
04
ec
00
ff
01
0f
f8
0a
01
11
0a
09
e0
fb
fd
f4
17
01
03
00
0f
ee
0a
1d
12
fe
1e
e5
05
ed
06
01
02
15
f8
f6
00
05
fc
02
1c
fc
00
06
02
00
06
fc
12
00
fb
10
ff
00
0b
ee
f3
ce
05
ec
06
ed
01
0d
02
0a
0d
02
fd
ed
02
15
13
02
ff
09
01
fb
08
06
fc
ee
16
ff
04
e2
03
15
00
fa
ea
ff
f5
f7
f7
be
02
11
00
06
e5
fe
04
f1
fe
05
01
fd
04
03
14
05
00
fe
fd
01
fd
03
05
fb
11
ed
05
fe
fb
03
02
01
e5
16
0e
ea
02
fc
02
00
e9
e9
fe
04
00
ee
22
02
f6
06
08
02
05
03
02
02
08
18
20
ff
ff
03
d4
02
06
fe
0e
f1
2e
ff
fc
ff
f0
e7
ff
02
06
0b
fa
f7
02
16
29
05
00
1d
02
07
00
f8
0b
02
17
ff
01
0c
ff
fb
13
0a
08
fe
00
e0
03
01
e7
05
07
01
06
01
ff
e8
fc
0e
01
0b
08
fe
00
fe
00
02
18
03
01
20
fc
ff
0d
fd
fd
fd
e4
fe
19
fd
03
f0
04
0a
01
00
01
00
04
00
fe
ff
fd
fc
fe
fe
00
00
ff
00
03
ec
00
06
05
fe
02
f6
02
f9
06
ee
f4
07
ff
f7
00
f1
ee
ff
e4
fe
fa
e5
f5
16
05
03
ff
0c
11
02
00
fb
fa
0a
01
15
ff
0d
09
0f
25
03
0c
fd
10
00
eb
fe
06
fe
00
ec
05
ff
0b
de
0a
f3
03
f6
00
f4
0b
11
fb
08
f6
01
fe
ff
fb
12
01
2b
ff
02
ff
00
14
05
fe
e2
0d
fc
fc
09
fe
f9
03
ee
fa
01
fa
e6
09
e6
02
fc
0a
20
ff
11
03
04
0a
0e
02
01
d5
05
fc
fe
03
01
00
04
ff
ee
02
ff
04
1b
24
09
07
fb
03
fe
f9
1a
f4
15
00
fa
00
ff
1c
07
ff
fe
df
22
12
15
0c
12
ec
04
02
03
15
00
0b
13
e4
fc
02
fd
fd
f8
12
02
14
db
10
fd
04
03
de
f4
02
01
fe
0a
0d
1d
00
06
02
ff
03
15
fd
0c
ff
f9
21
ff
eb
03
06
e6
fe
02
ed
03
ff
02
fa
e7
03
00
fb
0f
f9
06
fe
03
01
02
0a
15
f8
05
1f
ff
f5
02
fe
01
08
02
18
e2
ec
06
f5
e6
f4
ff
f2
08
0e
fc
00
13
fc
0e
01
e8
00
01
04
ff
fd
ff
00
fe
24
fd
01
17
04
07
02
06
03
fb
05
02
fe
fa
0e
0c
f9
08
f6
fc
09
0a
00
0d
f4
03
0d
02
25
fe
f3
f3
0e
00
16
0a
f6
04
01
fb
01
1c
ef
eb
02
05
fd
fc
14
f6
09
02
11
fc
ff
00
09
01
04
fc
17
ff
08
f1
00
00
00
ff
fd
dc
0d
fd
04
fd
ef
00
01
10
01
ea
00
09
fd
0f
01
ff
24
09
fe
e4
00
01
02
16
02
22
fd
f9
f3
01
0f
0e
dd
10
fc
f1
15
04
0b
09
08
ff
ff
05
fe
fd
f2
f7
04
fd
fe
ff
00
00
00
f7
00
ff
05
0a
fe
02
03
04
ff
fd
fe
fd
02
f2
fe
fb
fc
17
16
17
00
04
09
f9
04
04
fd
fc
fb
01
00
fd
f2
03
fd
29
09
00
01
04
0a
2a
03
02
05
09
17
01
f4
ac
10
22
fe
06
ff
13
08
01
01
e8
ed
ff
02
0a
05
00
ff
fc
21
03
f9
fd
ff
fd
01
05
01
f6
02
01
e8
08
09
fe
15
f2
f2
eb
00
01
ff
fd
02
fa
fe
0e
d5
07
06
06
fd
fc
09
03
f8
d3
06
00
10
07
ff
fa
ea
fe
0c
0b
01
14
01
da
00
1b
fd
05
02
00
03
fe
fe
fe
05
01
fe
09
fc
f0
fe
f1
fb
f7
fe
cd
fd
02
ea
02
19
ff
0b
fe
1b
f3
04
e3
f7
00
cd
00
05
f6
00
f1
12
fc
c7
07
fa
10
fc
05
08
ee
17
fe
fe
07
fb
fc
cb
f1
0b
00
fe
ff
f7
fd
03
03
ff
fa
fc
fe
08
f8
f8
0d
00
e4
00
e2
fc
05
ff
1e
08
fd
fe
0a
fe
ff
ff
22
fe
fc
03
04
05
fb
01
f6
fe
00
04
1e
00
1f
01
fb
08
01
03
fe
fd
e3
fd
18
0c
05
00
e8
f7
e3
f3
01
fe
02
d2
0a
07
fc
01
ff
01
00
09
b9
02
fd
f9
09
ed
ff
fc
00
04
01
e8
01
09
04
00
05
01
01
12
13
01
0b
06
11
ef
1f
04
f3
12
fc
fc
03
03
fa
f0
2e
f5
fa
01
fe
f3
e5
ef
05
02
fe
00
03
fe
f0
ed
02
fe
fa
fb
fe
14
ed
07
04
0d
fe
05
f5
ff
00
fc
ef
f3
04
1e
09
fc
08
02
fe
05
08
04
fe
ed
02
1e
ff
fd
f1
06
0d
ff
fe
04
05
fd
14
fd
ee
01
fc
04
00
00
fb
cb
00
14
11
1f
00
fc
02
05
04
f5
ff
14
03
fe
fe
02
15
00
18
03
05
06
01
00
01
ff
ff
23
01
06
dc
fd
0c
02
09
ff
1b
fe
08
03
10
06
03
1a
17
f2
09
0b
ff
03
f4
ff
fe
04
04
d2
d9
0c
0d
fd
01
e8
07
08
03
fe
06
06
fb
fa
14
04
01
0d
07
00
f0
fc
00
de
ff
0c
04
0a
01
fd
08
08
fd
ef
fb
04
fb
08
d8
04
07
f8
0a
02
fa
f1
06
fc
01
00
05
14
e4
02
0e
02
01
f1
ff
01
02
09
01
fc
ea
01
03
fb
fc
f8
00
0e
05
fb
e7
fd
ed
fa
07
14
1c
fd
fe
e7
0b
01
fe
f2
f3
0f
00
ff
ff
01
01
04
02
01
fa
04
10
10
03
09
01
03
02
0e
07
04
fa
ff
01
02
1e
fb
09
05
02
07
02
ef
13
e8
ef
ed
00
01
fe
12
10
0a
05
05
01
ff
01
ec
05
04
01
e1
f3
17
01
0d
f2
f2
f4
00
04
05
0f
f4
10
01
1a
e6
fd
02
e2
00
08
04
1b
de
fe
eb
f1
0b
06
fe
02
08
f8
fc
05
09
02
eb
03
de
0e
fc
0b
02
02
fd
11
05
02
fd
f4
f4
fb
e8
00
fe
fc
05
ff
fd
0a
de
fd
0e
ef
08
05
10
02
12
03
fc
fe
01
fa
00
11
fc
07
e5
00
ff
fd
06
03
08
fd
f9
fa
fe
18
07
b6
00
0d
fd
0c
05
fc
ff
07
08
03
02
0d
09
0b
fe
1b
ea
03
01
fd
06
d2
dc
e3
fb
00
f1
f7
0e
06
fb
03
f9
f9
fa
f2
fd
10
fd
06
1e
14
03
04
f8
04
05
02
1a
fc
03
00
ed
01
fa
f2
0d
f7
03
e2
02
14
f7
f8
03
0b
f9
ff
fd
df
01
0b
09
18
02
1c
ff
fe
1a
04
02
f5
e7
fc
00
00
ff
0a
fe
09
fe
04
f2
e9
eb
04
ff
dc
fe
f4
18
09
00
f2
f9
05
fc
00
e0
09
0b
00
02
fd
00
02
fa
0a
ff
ff
f2
fe
0c
ff
21
00
01
fd
fd
1b
fc
10
01
00
01
13
e1
1e
00
ff
f9
00
06
14
0e
e8
d1
03
01
00
f1
00
ff
1a
0c
fb
ff
02
00
0b
f0
ff
14
12
16
ff
04
14
f7
fd
fe
03
07
19
06
f8
00
ea
fa
fe
fb
00
02
e7
ff
22
f6
fb
dc
14
0d
e8
ff
fb
fa
10
00
01
0e
f9
0f
fe
07
fe
0a
f3
02
01
00
f3
03
fa
fa
f1
ce
0c
11
03
02
ff
fd
01
02
10
f1
01
fc
dc
09
07
02
ff
f6
f9
fe
f3
03
0d
fe
f7
fc
01
f2
05
02
fd
fc
02
04
fc
02
05
01
f3
00
f1
01
1b
fd
08
fe
f8
f4
fc
e3
f6
0b
f8
ea
0a
fd
f8
f1
fc
e4
02
06
0f
f4
02
01
ff
1a
02
06
0d
01
04
17
dc
04
fe
fc
0c
0f
08
ab
ff
fc
07
28
fc
db
01
0a
fe
00
f1
13
fc
0a
f9
06
17
03
c8
ff
f2
e8
fa
fe
03
06
02
03
fc
03
02
1d
03
fd
10
04
fa
e7
04
ff
ff
f5
02
04
0a
ff
f9
02
1a
0a
fd
11
fe
10
06
02
e6
01
04
01
ea
fc
13
ef
03
fc
fe
fb
14
05
fb
00
03
fc
02
0e
12
06
00
05
f3
06
02
f3
ff
03
00
e7
0f
ff
fb
fd
f8
00
f7
fe
0e
01
0d
10
02
f4
e8
f6
e6
0d
01
00
01
e9
f3
fb
03
ee
01
fd
fe
fb
d7
15
01
0e
02
ee
04
f2
27
06
13
02
00
ff
0d
e8
e5
fe
0a
1b
00
02
09
01
fb
00
14
01
fb
0d
e8
05
f6
fc
fd
11
11
ff
00
18
ec
f6
02
fd
09
ed
0e
02
02
ff
f2
00
09
fa
ee
f8
02
fc
00
01
fe
f5
fe
f4
e5
10
ff
c5
03
f3
01
fb
fc
e8
f8
ff
0b
ff
f9
fe
08
01
02
03
03
fc
04
fd
09
10
fd
fd
17
07
03
01
f5
fe
16
01
f7
00
ea
08
09
f4
00
04
04
ff
f0
03
f8
1e
fc
06
fb
18
0f
0d
f0
d2
ff
f1
01
17
0b
01
04
00
04
e4
0c
ff
f4
fc
fb
fb
fb
05
00
d9
fb
05
00
00
01
01
13
0f
fd
11
17
ff
ed
03
ff
01
f8
17
01
01
f7
fe
02
fe
fe
fe
ff
0c
0c
fe
f7
04
02
1f
04
03
e8
f9
04
00
13
fb
f7
00
15
05
00
21
01
fd
0b
00
ef
de
f2
11
07
06
07
0c
01
fd
00
04
01
01
fd
00
fe
04
fe
06
07
03
01
f4
e4
e0
fe
09
fb
02
fd
12
17
fc
07
fe
00
ff
ee
00
f2
ff
08
d5
0f
08
0b
ef
07
03
02
04
fc
fd
05
05
12
03
02
fc
00
fe
03
06
ff
13
0e
20
01
0d
fe
f8
19
02
03
01
fb
1d
f2
fe
0c
11
05
04
04
07
1d
02
f7
11
02
fc
0f
fc
0f
03
fd
f4
00
00
03
f4
f6
fa
fb
01
0d
04
f8
ff
00
01
07
00
16
fd
06
fa
fb
ec
00
fc
01
23
00
0a
0c
0f
00
03
f5
0a
06
f1
00
0c
f4
01
f2
fc
ee
02
0b
02
fd
07
05
ff
00
01
02
ff
03
fd
12
02
f9
03
01
03
ef
01
0a
fe
ff
0d
0b
02
0f
04
f8
0c
fa
00
f9
03
fb
07
fd
d2
05
13
01
fb
00
20
09
f6
0b
01
02
e5
0f
fc
04
02
02
f9
04
14
06
12
fe
20
00
10
02
14
ff
fe
02
0f
01
e8
ed
07
fc
01
1e
06
05
fe
00
00
fa
27
fe
03
ea
fe
ff
05
0b
fb
0c
00
01
17
05
01
02
22
01
00
25
00
ec
01
0c
e2
03
24
01
e2
0e
03
ee
f2
0c
2b
f6
fe
ff
e6
08
03
02
01
fd
f1
03
05
02
00
ff
02
1a
02
05
0e
0d
02
02
01
02
ff
01
f4
04
07
10
04
02
ff
02
39
e9
03
ee
0d
fe
fc
00
fc
09
e0
03
00
01
1a
12
07
f4
17
00
00
00
ef
0b
ec
00
1a
25
16
02
f7
13
0c
05
00
00
fe
06
19
fd
04
cd
02
fe
04
0c
fe
ff
fe
25
20
01
02
f7
13
12
fc
02
d9
01
01
05
00
e9
00
ff
0f
00
0a
0a
02
fe
04
0c
02
10
ff
ee
e5
fd
0d
fc
01
ff
ff
fe
02
0a
0b
ff
f7
e4
d3
fc
0b
ff
fe
01
05
0b
fe
e9
01
07
fe
05
04
00
02
01
00
fe
ed
ff
fe
07
01
0b
fc
00
00
ff
07
ce
01
fa
ec
e1
0b
0a
0b
05
09
e8
fe
ed
f3
ff
16
04
0c
01
0b
17
16
03
1c
00
fe
0d
04
04
08
fe
fb
f7
01
0b
09
08
01
e3
01
04
03
fe
ff
ff
01
03
05
1a
0d
00
f8
fd
ff
ee
06
e5
05
1f
0c
f2
02
0c
09
00
03
00
fd
02
f8
0c
03
f3
fe
02
1b
02
00
0d
01
03
04
07
00
0a
02
01
0f
02
11
04
fb
05
00
ea
13
01
fb
f8
02
f1
f0
05
00
fd
f2
14
08
fe
00
ff
01
01
05
e6
fd
05
09
0b
d4
02
22
ff
fd
01
08
0d
06
f7
01
fe
01
e7
1e
fd
ff
ff
e7
fd
02
0f
fe
e5
14
06
02
03
0d
f8
0c
01
fa
fd
fe
00
f2
00
05
fd
f1
f9
0f
02
f8
10
f6
f7
01
01
ff
1b
06
e2
01
0f
00
00
02
00
01
fd
00
ed
10
04
29
0c
07
09
fe
fe
00
00
fe
01
1e
09
11
01
f9
12
10
0f
fc
fc
00
f2
fb
16
0d
11
09
f8
f9
fe
fe
00
ff
ff
0b
02
e2
01
fe
f9
10
07
e7
ff
15
01
01
09
fd
04
fb
ea
fe
fb
fc
01
00
00
01
fd
0f
ff
01
fd
fe
f5
fe
ee
fd
13
fc
fe
05
16
09
12
f7
ef
fd
ff
e9
ff
00
0f
01
03
18
fc
0a
02
0b
e7
ed
fd
ca
01
05
03
02
ff
06
08
f1
0d
fe
04
03
fa
de
0d
07
f9
09
fd
04
fe
f5
01
fe
f6
06
fe
f4
20
07
1d
03
06
fd
fc
0b
fe
02
e9
0f
01
02
02
fe
02
f3
f7
01
02
fd
ff
a8
fd
01
f7
00
fe
fe
fe
03
e7
08
01
0d
fd
04
09
02
14
01
03
0f
0d
f9
ff
01
ff
05
f8
fe
04
e7
ed
fc
00
00
fb
07
fd
04
02
01
ff
f2
00
03
01
e3
01
01
03
e1
f7
04
f3
03
fe
fc
00
f6
f2
fe
10
0d
04
29
e3
e6
12
ff
fc
fe
fc
03
06
fa
21
f0
01
03
00
05
f6
e2
04
12
05
e5
05
e0
ee
0b
0e
fe
00
00
fc
11
e3
01
15
0c
02
fb
19
01
07
01
08
05
ff
ee
0c
02
04
ff
ff
17
0b
ff
ff
04
d4
fe
05
03
f1
fb
0a
01
02
00
f8
f9
06
eb
f4
f2
02
fd
00
05
fd
0d
01
f9
0a
23
03
01
00
fc
05
e6
ff
03
10
f9
03
03
f7
01
0e
01
00
15
03
03
ff
fd
00
15
fd
01
e6
ff
2c
ff
fb
01
f9
fc
db
00
07
fd
d9
00
0f
0c
ff
f5
0e
ff
f3
eb
04
f8
02
f5
00
1e
02
19
01
12
01
04
f5
fb
fe
fd
04
14
0f
01
01
fb
14
1f
06
0f
02
15
fc
05
ff
fe
ff
fd
14
0a
01
10
10
11
fa
fd
0f
03
06
f7
eb
02
11
19
ff
fd
14
ff
05
f9
0c
fd
01
ff
02
1a
08
fe
01
05
07
fb
0d
00
fd
09
07
0e
02
0a
05
e3
00
01
fa
06
08
22
08
02
f0
07
01
02
ff
00
20
f4
fe
07
ff
01
ff
f8
0f
fe
fd
1a
1c
f6
00
07
02
00
02
08
0f
02
05
02
02
fd
f9
37
f0
fc
25
06
08
13
1a
f9
15
18
03
03
fe
18
0e
f4
09
f8
fd
02
00
ef
05
fe
01
03
d5
24
ff
0e
e0
d5
0d
02
07
fd
0b
ff
07
fe
e8
dc
fc
ff
0d
fd
15
fe
23
f9
01
fa
ee
08
12
fd
ff
05
0e
fd
f8
f8
0b
d8
ff
f0
00
ff
fb
04
fc
ff
df
01
14
0c
e9
05
03
fc
ff
fe
00
02
00
00
10
17
04
fc
fe
fa
f8
04
00
fa
01
fe
ee
03
14
ff
ff
02
fd
01
fe
04
ff
00
fb
10
00
03
06
ff
05
ff
02
fe
ed
fe
0c
ff
d9
ed
ca
fe
0b
02
06
e1
04
fe
12
f0
04
f4
02
02
08
0b
f3
0f
01
ee
f9
fa
f5
fe
00
f7
fe
f5
12
fe
01
fe
ff
d6
13
f4
fa
02
fe
ff
ff
f4
fd
06
01
04
01
f5
df
05
13
06
0f
08
f6
ea
ff
00
02
0c
01
00
03
01
ff
08
11
ff
0b
ff
fb
19
fc
ff
07
09
fd
fb
dd
fe
11
02
05
ef
00
06
01
0e
f6
fe
10
fb
18
f6
0c
00
ff
08
fc
03
01
d7
20
ee
03
ff
fd
04
fe
f9
fd
00
fe
e5
e4
ea
02
f0
ff
05
ff
ff
07
05
0e
fe
00
01
0e
eb
d6
01
fd
f3
ff
09
0f
04
ff
03
fc
04
01
e0
ff
04
14
14
01
01
00
eb
d3
00
fd
fa
e7
09
fd
07
cc
fd
ee
fd
01
fd
11
f8
16
02
0f
1b
03
05
10
03
dd
06
ef
ff
04
12
0f
07
06
01
fd
0a
ed
fe
fe
04
f8
11
ff
ee
07
16
0d
03
ff
ff
15
00
0e
f6
11
16
fd
ef
fd
00
fe
23
01
e8
11
0e
fa
fa
07
f4
fb
ee
fe
08
0f
01
ec
00
f2
01
f8
f8
f9
f0
fd
fe
fe
00
00
05
07
ff
f7
fe
0c
fb
f9
01
ed
fc
00
06
fc
fe
18
03
ec
04
07
ff
10
ff
e9
f0
01
02
ff
f2
e2
10
0e
e7
00
ed
09
0d
0d
01
03
e9
fe
f1
0f
01
0a
08
0c
18
21
07
00
d5
00
d2
00
0e
00
fe
14
ef
04
07
01
07
fd
fe
db
00
f1
10
06
fc
fa
d2
00
ff
e9
fc
02
00
0e
00
07
fe
02
e3
05
fe
f0
04
fd
ff
17
01
03
00
0b
e3
01
21
10
09
04
02
f0
f1
06
f1
07
fd
eb
04
08
fc
fe
cf
02
fe
00
ff
fc
01
fc
08
0c
03
fe
fb
db
10
fd
08
fd
00
01
f4
20
04
f0
00
fd
fc
f7
e9
ee
04
e7
fb
0c
fd
05
0b
0b
11
03
01
02
1a
fe
0a
f8
15
fc
ff
02
eb
00
fd
04
09
da
ef
01
0d
09
ef
ff
00
03
fe
14
ec
0e
ff
ea
f9
01
ff
0d
01
f6
02
f1
05
fd
ed
09
00
0f
fd
02
0b
06
01
fe
0d
06
17
04
ff
0a
0e
01
02
00
00
04
00
05
02
fe
fd
02
f7
00
fb
00
10
00
1e
f2
f2
01
ec
e1
0a
01
ff
fe
f5
03
00
0d
00
e0
ff
f6
03
00
da
04
ff
ff
fd
00
09
ff
00
f9
00
f4
fd
14
03
f1
ff
f6
01
09
01
0e
0c
f5
04
ff
e0
30
01
fa
fc
fe
16
fe
1c
0d
e1
f5
0f
fc
e4
e6
cc
f8
01
fb
ff
1d
ff
e0
00
f9
fd
f5
db
06
03
fd
ef
00
23
fc
10
fe
01
10
06
fd
fa
fb
f8
e4
02
f0
00
e0
e1
0e
01
fb
e6
00
02
0d
02
f2
ff
df
fd
0d
fb
fe
1a
06
ff
08
08
04
01
fe
fd
ef
fe
04
f5
04
dc
ee
13
0f
03
fc
07
04
16
1d
f8
08
01
00
fe
01
02
f7
fe
01
fd
fe
fd
fb
0b
02
01
fd
0c
0e
fe
04
f0
fe
fc
04
d0
19
07
09
03
fe
02
bb
1f
1d
01
fa
01
fd
0f
08
0d
f4
f8
01
fc
fc
f4
09
f4
fa
0d
01
ff
00
d3
0b
fa
00
05
e2
10
fb
f2
dd
0a
cd
01
fe
00
03
1b
17
fa
0f
00
fd
03
ff
00
fc
ff
18
fb
ff
0e
08
f6
f0
fc
fc
18
fe
01
fc
03
03
1f
00
01
ff
f9
0c
07
02
01
05
01
06
fb
d9
f7
fe
00
fd
02
fe
1a
01
02
0a
00
fe
0d
08
ff
00
01
fb
01
01
ff
e7
00
00
03
fb
fc
08
f6
03
00
03
fa
02
10
02
00
de
fd
f1
01
06
ff
01
00
15
fc
15
1d
ee
03
0d
ff
00
11
f8
07
f8
05
ff
f5
01
13
05
f8
07
05
00
f5
03
0a
ea
fd
fe
ef
ea
0a
02
ff
16
05
0a
01
1a
09
04
f0
03
07
fe
f7
01
00
f7
07
fc
06
00
fd
03
02
0c
01
f1
e9
e4
00
ed
ef
fd
fd
fa
01
0b
14
18
ff
03
01
03
ef
02
ff
fe
0d
fd
00
de
fd
ef
00
fd
e1
fc
fa
e8
08
f6
02
ff
ed
01
02
f6
01
02
f6
09
00
fd
e1
ea
f3
01
fd
fc
fe
03
fd
ff
01
ff
fd
18
f6
01
f2
ff
ff
02
dd
f8
e9
06
00
ff
00
fa
fb
0d
fe
ee
05
e9
04
05
17
f6
f0
fd
00
fd
08
07
01
0a
04
00
fe
03
ff
f9
05
ff
eb
f7
f0
fc
ef
ff
09
e6
00
02
01
11
18
e4
fd
14
14
01
fe
2f
06
da
ff
f2
fa
ff
f9
00
09
2b
fe
ff
22
07
fc
05
00
11
ee
02
e5
04
00
f1
ff
02
07
0a
05
03
16
06
d4
06
fc
00
fd
ff
fe
02
0d
09
ed
00
fc
09
fa
fe
03
02
fb
00
fb
f4
02
06
04
f5
03
05
04
fb
fc
ff
03
fd
f5
fd
00
18
fa
04
ff
00
01
e4
fe
ef
06
02
f6
13
16
17
04
0b
03
17
00
f9
fe
01
08
07
f1
fa
13
18
d0
02
0f
12
29
fa
00
00
07
00
ff
ea
01
0f
0c
0c
fe
0f
10
06
12
00
e8
00
f3
02
03
14
fb
00
03
ec
00
f5
00
0a
02
ec
f8
0c
ff
03
e6
00
01
13
01
f5
f2
20
ff
fe
00
03
f1
0a
00
f0
f7
01
fd
17
fe
19
00
e0
03
01
00
f6
ec
09
fd
00
09
f2
f7
dd
01
0b
10
02
ff
07
e0
00
09
fe
02
02
ff
03
01
f9
01
04
ff
0f
f3
fe
fe
ff
fc
fb
f6
03
ea
03
01
ff
02
03
01
09
fd
e5
f7
0b
f9
05
1a
00
03
ff
04
02
03
08
fb
f6
07
fd
05
01
f9
d8
1a
04
f1
0f
10
04
0f
d4
11
fd
00
03
fe
0a
0c
fd
06
1c
22
01
02
fc
02
ef
fe
ef
06
03
1d
fd
0a
00
04
02
00
de
fd
00
ec
0c
10
01
ef
05
13
f1
fe
ff
fd
13
01
14
0b
fa
ee
00
ef
04
02
00
fd
fd
01
dc
ed
ff
fa
10
fb
f8
05
ff
0e
0b
fe
02
ff
03
01
05
ff
00
0a
01
06
00
fe
02
e0
03
ff
17
fd
fa
02
e5
ff
21
02
0f
03
00
f2
14
06
01
09
ff
0f
fc
02
fc
0c
04
fa
01
0c
f4
05
09
fe
01
38
01
ff
04
02
01
f0
f1
03
f1
fe
f8
01
0d
f4
04
eb
03
ef
02
0e
fc
0f
fa
00
14
04
fb
f4
d8
fb
18
ff
f3
05
17
11
f8
01
04
db
03
fc
f7
04
02
14
e5
00
f7
fb
00
d5
05
04
cc
fd
04
fe
e7
00
c2
f8
ef
10
fd
1d
fe
f3
ee
00
ec
05
21
f0
e3
04
fc
f9
fe
fe
ff
fc
08
0b
02
01
00
fb
01
fb
14
ff
01
07
ee
1c
03
11
02
00
fe
f8
ff
16
eb
ff
01
02
09
05
f9
ff
0e
01
1a
fd
fc
ff
e5
fd
03
05
01
f0
10
06
f3
f0
01
02
ff
fe
13
e7
ff
f7
01
01
ff
f9
f0
02
15
02
00
01
06
03
13
ff
0c
fd
fe
ff
e3
fd
05
03
04
06
01
04
06
06
f1
fd
02
ef
05
ff
ff
0d
e9
03
01
f2
00
26
fb
01
fd
03
13
ff
f3
16
17
07
08
ff
00
00
fd
01
fe
01
17
04
fd
df
f7
fb
f8
cd
ff
02
fe
03
15
01
17
02
fb
fa
fd
14
02
03
ff
ff
fe
0e
06
03
07
fd
34
00
f3
fd
f4
02
05
01
01
0a
03
14
e5
0a
02
17
f4
00
09
f3
fe
06
01
ed
f3
fc
f8
08
02
ef
f7
09
0d
ff
04
c1
ee
f3
ea
ff
f9
0d
10
03
e7
0b
00
f7
fd
d7
02
02
fe
01
fd
f1
04
eb
f4
f6
07
ff
fe
03
ef
47
03
02
fb
12
fe
ff
db
ff
fd
1d
02
fe
06
ff
01
e7
0b
03
ed
0d
00
fd
f0
00
08
00
da
0b
00
d4
fd
04
c8
02
f5
1b
00
fe
b6
06
03
06
03
ff
ff
0d
02
0b
01
00
00
fb
01
05
26
01
fa
08
ec
fe
ff
02
fd
04
01
09
07
f1
0f
fc
01
00
fe
cc
0d
04
e0
f5
ff
e4
03
00
09
01
02
fc
04
ed
f0
17
ee
12
02
00
fb
fa
00
16
02
da
f2
1d
fd
09
ef
d4
ec
fe
00
03
f6
e7
01
fe
12
e4
ff
03
d2
00
f5
00
0d
f5
ff
e7
0f
03
f6
03
fe
0f
0e
fc
03
03
f5
d9
ff
f2
11
ec
e9
06
fd
01
d7
02
12
13
01
fe
fc
e0
00
fd
fe
fa
01
03
ed
03
01
04
00
fb
f6
1e
ff
0a
08
01
b9
fe
fe
f9
f9
fe
01
0c
fd
fd
fc
fe
fc
ef
fb
ff
06
01
fd
01
fa
ff
02
fe
07
fd
2f
e6
0d
f8
0e
03
06
0f
11
04
f9
ec
03
ee
02
0b
06
01
fd
e8
fe
10
07
15
17
fe
ff
02
f6
e4
fc
ff
11
fc
0e
09
0f
0b
04
17
02
12
fd
0b
00
fe
f2
ff
ff
04
dc
ff
00
03
f9
fb
16
08
0c
03
fd
e5
fc
fe
fc
06
15
f7
ff
02
05
00
04
c5
06
03
eb
0a
ff
fb
fa
fd
e4
f8
f9
e7
ff
fe
f7
12
08
02
df
e6
00
ec
dd
03
04
08
0a
02
fe
03
e1
1c
02
03
ff
00
00
07
10
fe
00
14
eb
0e
03
09
ff
05
fe
f0
25
0b
06
fe
ff
03
fa
e8
e1
fc
10
bf
07
16
09
0d
0b
fb
03
fe
00
01
ff
fe
f7
fe
fc
03
02
0a
11
f4
02
fc
07
25
ff
00
e4
e9
16
ff
01
04
e3
04
0f
01
04
0e
02
04
07
01
f1
02
f3
09
01
22
05
06
08
04
02
f5
f6
02
fd
fd
07
05
fe
ec
04
ef
f0
05
01
03
f3
ff
1c
e8
06
fd
fd
d3
fb
fd
01
04
ff
00
16
e5
fe
eb
06
14
fc
02
04
02
05
ff
f5
05
0a
01
0a
01
02
f7
fe
01
ff
ff
01
f3
ff
02
e7
01
f7
fe
e0
ff
f6
05
13
04
04
fc
12
f7
23
ff
04
fd
f7
fe
08
fb
00
f8
fe
f6
e9
07
01
f1
fe
0d
06
08
0f
01
fe
03
f9
ef
ef
01
16
07
0f
07
15
da
fd
f8
03
03
02
0f
01
00
0a
f6
02
0d
f8
02
fa
07
00
01
fb
ee
10
05
04
ef
ff
02
08
ff
0e
ee
eb
01
08
05
fe
08
04
ff
e5
19
fc
03
00
ff
10
fb
d9
f0
fc
d8
e6
ef
09
01
e7
0c
00
f0
ec
01
14
f7
05
ff
fc
f4
02
f5
05
04
fc
f9
02
00
11
fe
01
13
fa
0a
fe
01
01
02
01
ed
df
f8
05
fe
01
02
13
19
ea
02
03
f9
1c
ee
e9
11
ff
f6
00
fe
ff
10
03
04
06
08
01
02
fe
f2
08
13
02
fc
fb
05
fe
0f
e1
07
0b
ff
fc
01
fe
05
09
01
0b
18
fd
02
17
01
f6
ff
0a
e7
fd
15
f5
02
03
03
02
fc
0a
06
01
fd
0d
09
03
f9
03
f9
ec
00
01
00
02
00
16
03
e9
f6
fd
f6
00
fe
00
03
fd
16
f1
e6
fe
08
ef
25
02
eb
00
fd
f1
00
0e
fc
f5
00
fa
01
06
fd
03
04
00
fd
fe
0a
fe
04
f7
01
e9
00
f9
ff
1a
ff
02
ff
e4
0e
f1
16
f8
fc
fc
08
f8
03
12
e9
fb
f2
03
0c
ef
f9
e2
03
fd
de
0b
fb
e7
fd
02
13
00
00
ff
04
f9
0b
08
d3
0b
f6
fd
21
fe
fb
fd
05
ff
01
f0
0d
fc
04
f1
03
f2
02
f6
fe
09
1b
15
01
e7
fa
fe
ff
09
03
0c
ff
f9
03
f8
ff
fa
ed
06
01
f5
13
ff
fe
fb
04
d9
03
10
1f
02
13
ff
df
f8
01
f6
fe
19
fb
f9
04
15
0a
fd
fd
ff
11
06
f1
f8
02
03
00
02
09
f6
02
04
f8
f9
09
fb
11
03
00
fe
fe
f2
00
08
ff
00
ff
f3
05
0b
ff
02
14
00
f7
fc
0f
d7
ef
05
01
04
05
09
fb
e1
ee
01
00
04
ca
15
00
03
ec
f0
fb
ff
f7
03
02
e9
ff
01
fe
f2
21
07
fe
ee
fa
fc
01
f1
fb
11
02
f8
15
ff
0c
d8
fd
0d
02
01
03
e8
01
01
d1
04
05
03
15
03
0c
f8
01
fb
ff
ff
fb
07
0b
f8
11
02
f4
00
01
00
f6
00
ff
f4
0f
fd
0f
12
ea
fb
16
00
1d
f1
fe
05
fd
00
02
0d
ff
ff
15
ff
04
01
fd
01
f1
ff
fe
dd
00
f2
fa
f0
ff
15
03
0d
01
f6
06
08
0c
fe
04
01
1a
1d
01
f2
0d
fe
0c
fc
df
eb
14
12
f2
fd
f0
04
ff
fb
03
ff
01
05
fc
04
00
02
f6
06
f5
09
f7
fe
ca
fc
02
fc
ea
03
ff
08
ff
01
0e
f9
f3
ee
01
cd
04
fa
03
10
00
f6
e4
fd
fe
ef
ff
f8
0a
fa
fd
f5
fe
02
08
05
03
fa
14
fe
fe
05
00
07
00
f4
f1
ff
e7
f6
04
e8
fe
f5
00
0d
e5
e2
00
fe
f9
fe
ff
fd
f6
19
fd
04
01
fe
04
ff
02
0e
fd
02
01
c9
fe
ff
1d
00
fa
02
ff
fa
f7
fb
fc
00
ff
12
bf
13
00
03
fe
0b
07
05
02
0b
fd
00
fd
fe
fb
08
f9
13
03
ff
03
00
ea
f4
fe
02
f5
fe
09
01
ff
f8
f1
cc
fb
01
fd
fe
14
05
01
d1
f5
ff
fc
fa
ff
f4
01
e8
fb
02
ee
14
00
01
fc
01
d5
fb
00
fe
14
0f
08
00
e1
05
00
f7
03
00
00
0c
04
0c
f9
17
05
ff
f2
fd
fd
fe
f4
06
ed
11
f1
00
04
1a
de
f5
f4
02
fe
fb
01
17
01
18
fe
f9
fb
08
f2
fb
ff
01
02
fe
f3
fc
00
14
00
f0
fc
fc
ff
0d
03
02
fc
00
f2
00
03
0a
0e
03
fe
0c
00
fc
13
03
ee
05
f9
ed
1a
0e
06
02
10
00
11
11
01
fd
07
f6
fc
f5
02
12
04
0a
04
20
fd
02
05
fe
0b
fd
08
fc
01
1b
fc
ff
ff
f7
fd
ec
02
dd
ff
0a
0b
16
ff
04
f5
fe
00
0e
fe
0d
05
13
01
fd
fe
fc
ef
05
fc
f8
f8
ff
03
11
00
11
03
01
e8
00
03
ec
e5
c8
01
09
02
09
f6
fb
04
e7
f5
06
02
fd
e9
f1
fb
02
fe
01
00
ff
fd
fa
00
03
15
e1
e6
fd
05
02
fd
01
e8
0e
f7
fa
03
fe
ff
fe
eb
01
01
01
0e
ff
ef
f9
0f
06
01
02
04
fc
f0
08
03
03
15
ff
fe
05
f8
11
1b
fb
04
f7
08
ff
00
07
07
0c
fd
01
00
03
fb
f1
01
05
0a
00
fc
12
fe
fb
00
f5
e8
00
06
13
08
0b
02
03
04
03
02
02
f4
04
0e
03
02
07
16
16
fd
ff
00
ed
00
f6
f8
da
27
fe
02
fc
00
01
1d
00
0c
f0
0c
fd
f9
00
07
00
fa
00
01
07
02
fd
02
f9
fd
03
ff
fb
01
01
03
03
ff
fc
00
03
00
fe
01
09
ff
ff
02
ff
03
f4
03
fb
ea
15
e8
09
0d
ff
e7
11
00
f9
00
fc
f7
02
f4
d9
01
ef
fe
00
2c
02
fe
f5
fc
ff
1f
14
0d
f3
00
fc
07
f8
2b
f6
0e
02
1f
01
15
02
00
fc
ff
06
05
01
10
05
fd
01
08
fa
01
02
13
0f
00
fd
19
00
ff
08
ff
07
05
ec
fe
07
00
00
01
04
05
e9
11
06
01
18
07
08
05
0b
f5
00
02
0e
01
fd
01
10
0b
fc
07
26
fa
03
fb
09
00
01
ff
13
22
fd
fe
02
05
01
00
02
ff
ff
00
10
01
ff
fc
ff
01
02
fd
17
fe
fc
fc
ff
00
08
0f
e7
fc
0b
04
1a
eb
fd
fa
f4
ff
01
03
02
0b
04
06
ff
fb
ff
ff
01
f2
23
0b
04
13
e9
f1
ff
f7
08
f8
f9
04
01
03
0b
15
fd
00
06
ec
fc
00
10
fe
f4
05
0e
fb
ff
fd
0f
06
fa
02
05
08
00
fe
00
f4
0b
f7
ff
f8
08
11
01
03
fe
ff
05
05
f1
da
07
03
02
f2
fe
fe
fd
0d
fd
0e
c0
fc
04
de
07
eb
05
fc
fe
f9
fc
04
e3
05
18
fe
06
fc
fe
03
02
00
00
02
00
fd
02
fc
fe
04
03
02
f8
01
0e
fe
14
03
11
03
16
02
01
08
0b
09
e6
02
0d
05
00
d3
01
ee
14
ec
08
00
00
0a
15
08
06
03
01
0e
e2
02
10
01
f6
fc
02
05
eb
1c
ff
0f
00
fb
02
03
00
00
0f
1f
02
eb
19
0f
ff
01
09
02
09
0c
02
03
f9
ff
ff
fe
f2
fd
ff
0e
d4
fa
e6
00
02
d9
03
ff
13
fd
06
fb
14
fd
f2
03
fc
06
fe
ec
ee
06
f5
fe
fd
fb
10
1e
24
fc
ee
fc
02
fd
02
06
00
02
00
ff
00
02
01
09
ef
ff
03
f3
ee
f4
ff
06
ff
05
03
ff
16
06
d9
fb
fe
03
1f
2c
f7
00
15
ec
0e
ff
00
09
19
ed
ff
02
01
f7
fd
fb
07
03
01
ff
fc
16
f8
e7
01
ec
de
fa
ff
ec
11
08
0e
04
fd
ff
15
f3
02
fb
0c
f8
03
02
da
ff
02
01
29
05
fe
09
0e
02
10
ff
00
14
f6
00
fb
d6
ff
12
01
fa
fa
11
06
00
02
00
02
fd
fe
09
02
1e
04
eb
fd
fe
ff
15
02
0f
e7
18
fe
13
03
fc
02
fd
00
f9
07
ff
f5
01
07
ff
f1
00
00
e8
fc
00
fd
00
fe
07
04
02
b9
ff
ea
02
ff
02
fe
03
03
fa
07
fb
0a
06
17
fc
04
e8
1f
02
05
fc
00
0c
fe
01
ff
12
fe
0f
fd
0f
05
16
fb
03
02
07
ee
f3
1f
fc
09
02
05
07
09
e3
fd
14
02
e2
fd
fe
00
02
02
03
00
e9
c9
fe
0c
fd
ce
ff
06
f4
f5
01
09
f6
fe
fe
05
fc
e5
0b
eb
00
db
01
01
17
fd
fd
f5
0e
fd
00
d1
fe
ed
00
f2
e3
ff
07
f8
20
f5
fd
f4
eb
00
03
ea
ff
06
06
ff
01
fd
fc
fa
0d
fe
01
fe
00
ff
f6
00
01
00
0a
07
db
fd
ed
00
fc
00
0d
04
04
ed
03
00
00
c0
05
e4
00
e5
16
de
e7
06
e8
f9
fe
02
00
02
ef
04
06
05
04
fd
fb
00
fd
f9
18
00
14
ff
ea
03
fb
1d
a2
f8
06
01
06
fc
04
16
00
19
fa
03
fd
e5
fc
24
ff
0c
1f
fd
1f
1a
0c
fe
fe
fe
eb
f8
fd
fd
01
ec
04
04
ca
06
fc
f1
01
00
ff
f7
05
f2
e8
06
26
01
e0
01
fb
03
0e
fd
03
f6
fa
fe
f5
f3
ef
ff
02
fd
e0
0f
ff
fb
fd
0a
fe
12
00
fe
05
fd
00
ff
01
03
e5
00
01
0c
03
fd
02
ee
fc
f4
ff
f3
02
13
00
ff
05
ed
fa
06
02
fd
03
0c
0b
fc
f2
02
f6
f4
00
1d
f7
00
0d
05
09
0f
00
01
ff
02
0b
24
fe
0e
02
04
33
16
ee
ff
ef
02
e6
04
f3
01
00
13
f7
00
e3
e8
09
dc
03
f5
05
e6
e3
04
02
05
fc
fb
02
f6
01
00
ec
fc
00
0e
02
00
04
0e
04
d7
13
fd
00
ca
fd
f0
fe
f3
ee
fc
e8
e6
15
08
00
1e
11
0a
f7
24
03
f4
ed
08
02
03
dc
0c
15
00
01
00
02
01
12
1e
02
02
fa
f2
f2
fc
f9
fd
03
00
00
00
04
f3
04
fe
02
08
02
eb
03
f1
00
21
e6
04
05
10
f3
01
01
00
0d
04
13
fd
f3
02
ff
04
01
11
05
fe
02
03
0f
00
01
fe
fd
e3
01
00
04
f2
06
f6
fe
e9
13
02
01
fb
01
10
03
fe
e6
fe
dd
f8
fe
fd
01
ff
0d
f7
fd
00
01
0a
0a
ff
10
fe
07
19
04
fe
02
e8
ff
0c
e5
03
11
fc
ff
fd
00
01
23
fc
e0
fd
f6
fe
f7
fc
eb
01
f6
06
f1
08
fd
f8
ff
f5
00
ef
01
00
09
fd
03
fd
00
01
fc
01
fe
08
ff
fe
01
0a
ff
fb
fd
0c
03
0a
13
17
00
ff
fd
01
01
11
ff
11
dd
ff
f9
fe
ee
fc
fd
0e
ef
fe
00
f5
04
0d
04
01
12
ee
14
00
ff
07
02
ff
0e
06
ec
ff
1a
fd
0b
04
f8
00
fd
fc
f4
02
ff
fa
f4
f6
02
f2
01
d5
fa
0f
03
f2
0e
03
ff
fc
00
df
07
ed
01
f8
04
02
17
fd
fe
b1
14
01
fe
f4
fc
fc
ff
1a
ee
fe
f2
ec
0a
f2
fe
ff
f5
ed
f9
ff
ff
fc
f6
02
01
fe
ee
04
01
fd
01
fd
ff
00
00
02
01
fe
fa
f0
fe
01
03
00
f9
04
f7
22
fb
f3
ff
fe
03
f9
f3
0a
03
01
f7
ed
e8
00
ff
0b
00
ff
ff
ff
00
fb
08
02
1a
fe
02
00
04
08
fe
00
f4
e0
f6
02
fc
08
0e
00
ff
fe
ff
f2
fa
1b
ff
09
09
02
ff
f7
05
e4
02
05
ea
01
0d
05
fa
04
ff
01
08
12
00
01
f8
fe
fb
ff
f9
fa
f7
de
fe
fe
00
f7
05
e7
16
f5
06
f7
00
07
00
fd
0c
fe
07
02
0b
02
dd
eb
f1
ff
f8
ff
17
0a
00
c7
03
07
02
0e
00
fd
ee
04
fb
fd
fd
02
14
01
fe
f2
00
14
fc
e6
06
00
fe
f0
fc
f7
f5
fa
14
26
ec
fc
00
09
fe
01
09
ff
f2
03
07
08
04
fc
d3
01
05
0b
f9
ed
ff
01
f5
f5
cb
25
fe
f5
0c
f8
e3
09
ff
02
f8
02
05
01
fe
02
00
0c
08
01
04
16
02
d5
ff
11
fc
e0
05
ff
fe
fc
1f
00
fd
0d
ff
ff
fb
f7
01
21
ff
ff
f9
05
01
05
f7
01
02
18
01
16
05
07
ce
fd
f4
fe
f5
ca
04
03
0d
f8
0f
23
fd
fd
07
01
fe
00
0c
1a
0d
01
00
fe
00
ff
06
12
03
fe
13
f0
db
02
01
fd
ff
01
04
26
ef
f5
ff
03
fe
07
f5
01
03
11
00
16
03
01
f6
0c
06
02
ff
03
f1
04
f7
f9
f6
ff
ff
00
fe
0f
ed
01
07
ed
09
00
08
f6
e9
df
fe
fb
04
0b
07
f5
fc
03
1b
00
ff
ed
fe
e7
ff
05
f4
fe
0d
0e
fc
0c
03
fc
00
05
00
fb
f4
e7
fc
fd
06
04
f4
ef
fd
02
00
f8
fc
0b
0d
ea
f2
fd
c7
ff
ff
ff
f7
00
12
10
0c
00
01
ee
f1
fd
e6
00
12
0c
ff
d7
01
de
02
f0
fd
05
e2
fb
fe
02
01
01
07
02
ff
16
00
fa
01
1b
03
fd
00
fb
fd
27
08
06
12
f6
10
09
fc
06
00
f0
02
ff
f2
fd
0c
fd
12
ed
fe
fc
23
f6
03
05
fe
00
f6
f6
02
de
fe
02
f7
01
dd
09
d7
fc
0c
fd
06
fe
0c
00
02
1c
15
05
0b
e9
01
ff
02
e8
07
fb
06
19
03
0e
e3
ff
01
d4
01
f8
1b
ec
fe
f6
fe
ff
16
07
fc
db
e4
00
01
f2
ff
fa
fd
19
ef
fc
07
e0
ee
01
ff
d9
f5
0e
f0
0d
fe
f1
fb
09
03
fd
be
0e
13
00
01
fe
fe
ff
08
ee
ff
00
00
d3
f4
01
15
ff
fb
04
0c
0a
02
0a
ff
01
fe
04
09
f6
fe
06
00
d7
0c
0c
01
e8
ed
fe
ff
fe
0d
07
05
fc
14
03
fc
06
df
04
13
03
fd
db
02
02
04
0a
01
d7
fd
ff
00
16
d6
f1
00
f0
0d
fe
fd
ff
00
20
00
ec
17
fe
12
0d
0e
ed
00
fe
e2
1b
05
fd
08
fb
07
ff
1a
09
0c
04
02
03
02
12
02
00
00
ef
fb
06
f9
fd
fe
fc
05
ff
08
f5
04
02
03
0a
10
f8
01
02
0a
f9
00
c7
fd
ec
01
ed
fb
fe
0a
03
04
01
ff
02
f4
02
00
c7
04
0a
ff
fd
03
0d
fe
f2
01
07
fc
03
fd
05
ff
ff
0b
07
fa
13
14
fd
e2
04
ee
00
12
09
f4
fe
03
fa
1a
02
02
00
f9
f9
e1
19
00
05
05
fd
0d
f6
cf
03
05
ff
e9
01
10
00
00
ee
f2
02
e8
29
12
20
02
f5
ff
19
13
d7
05
00
04
ff
ff
0d
00
01
fa
0d
ff
ec
fd
02
04
08
fe
01
0c
02
01
f9
fd
de
05
09
17
02
1b
11
1c
ff
03
ec
fa
00
11
e9
05
f6
0c
05
fd
01
f5
08
07
03
fd
01
02
03
03
fc
00
03
01
f0
df
04
d8
05
fd
01
f9
ec
01
02
ff
fe
ff
ec
f3
15
ff
fe
e9
0b
0a
03
04
fb
fc
02
ff
04
13
f0
01
fe
01
01
01
03
08
0e
07
fe
ee
f3
f9
fd
00
e9
e8
e7
fd
03
00
f5
ea
fd
01
0a
12
01
00
f0
02
f4
fc
09
01
f9
fb
f7
08
17
ff
fd
ff
e9
ff
01
17
df
fa
fd
fc
f8
16
fe
03
02
03
ee
07
16
06
0d
0e
f7
e9
fe
fc
fe
0e
01
03
f1
fd
01
ec
07
dc
00
0c
02
12
05
fd
1d
ff
0e
00
03
fd
f9
1e
06
02
fd
01
fe
02
fe
fe
f0
02
15
fe
f6
00
02
06
13
02
09
0b
08
18
02
09
07
04
0c
00
e9
f7
fe
eb
00
14
e7
22
fe
ed
00
1e
13
08
15
ff
04
da
07
f6
03
01
fb
02
f2
e6
f0
05
01
ec
06
fa
01
1e
fc
fe
13
04
02
05
0b
ff
05
00
0d
09
de
03
12
01
11
0a
01
00
07
ff
04
e3
11
fb
0a
01
00
f7
04
ff
f4
ed
ff
fd
ed
01
11
06
06
fa
01
18
f0
fc
ef
ff
eb
00
15
1c
02
00
08
01
02
04
ff
db
08
0d
fd
01
fe
01
03
05
fb
01
00
09
09
08
04
f8
fa
01
ff
ef
ee
15
a6
fc
00
00
15
20
04
fa
1e
f3
f1
fb
13
0f
16
fb
fe
00
01
0a
12
01
ce
1c
03
02
03
00
0a
2a
02
08
ec
14
01
ed
0c
0c
fd
00
00
fa
05
e6
09
fc
f9
0d
fc
02
14
ff
00
02
19
1c
fd
f4
f7
fa
f8
02
00
00
fe
03
fc
f9
19
01
fe
fe
02
fe
16
fc
fe
01
f3
fe
25
f2
fc
fa
fe
12
fd
ff
06
0a
ff
fb
fc
00
fb
0d
0b
0e
fe
e8
00
f8
06
02
01
fb
03
fe
01
fb
02
08
05
02
01
fc
05
10
ff
03
fe
02
2d
fb
01
00
00
ff
f6
03
f2
13
06
03
f9
ff
ff
09
10
ff
06
0b
05
e9
02
f7
e9
11
ed
00
fd
04
01
0c
06
fe
ff
02
0c
22
e8
01
02
00
08
0a
ee
ff
fd
fb
fd
27
fd
f9
01
fe
00
01
01
f9
13
08
df
f8
11
fe
ff
ef
fc
05
f7
0b
08
ff
ee
01
01
16
0b
07
ff
02
01
0a
03
00
1c
05
05
01
fa
01
f1
04
fc
e8
fd
f7
05
03
0b
00
e0
f1
0f
2f
03
01
ea
ea
ff
05
03
d3
0e
f4
ff
03
fd
03
01
ff
15
00
00
06
16
fa
fe
03
fe
01
02
08
f5
f4
f4
ff
fe
04
f5
3e
0e
03
18
01
05
ef
25
01
00
03
03
01
ff
03
0d
ff
f8
17
02
01
02
0c
11
fe
00
1d
ce
14
01
e6
f5
e6
ef
03
01
fe
10
12
05
ff
d0
10
02
fd
fc
f9
05
fe
20
ff
fa
03
fb
00
09
ff
fb
df
fb
02
04
f8
fc
08
fd
f5
02
f0
e8
02
05
ff
e2
03
01
ff
03
f9
01
02
00
01
01
ca
ff
12
ef
eb
04
08
c6
0e
00
f5
01
17
10
fd
02
02
0d
03
ec
ff
04
01
00
ff
02
fe
01
09
05
01
e3
02
14
02
05
ff
09
fe
f3
fe
ef
e8
f5
ff
fc
fb
f3
0c
0e
fc
01
07
02
01
fc
eb
07
ff
e5
15
04
e1
0a
f9
0d
00
ff
fd
0a
ee
c7
00
10
00
fa
1a
16
f9
01
0c
fe
12
01
fb
02
04
02
f8
04
fc
12
00
08
03
e5
fb
03
16
f1
fe
fa
0e
01
02
09
02
e7
fc
20
03
f7
02
02
0a
00
02
02
e3
02
00
f8
fb
02
fb
fc
cb
06
e1
f0
10
05
02
fd
02
07
14
05
fa
fc
e1
07
ff
02
16
0b
fd
fe
01
fb
fd
fc
ff
12
ff
00
f6
ef
03
ff
01
02
01
fd
f8
05
fb
11
03
01
fd
0e
35
23
fc
0c
0a
03
03
19
14
d6
0b
fe
01
fe
fe
07
f6
14
f1
05
00
02
f4
0b
fc
02
05
15
16
fe
04
0a
ee
db
fe
ff
02
0b
21
ff
ff
04
0b
fe
fe
eb
01
fa
fb
12
ea
fb
f7
0c
04
d2
01
fd
f8
03
01
04
0e
c8
05
02
ff
f3
0f
fe
00
ff
fd
fd
01
ef
f5
08
e8
fd
08
fd
ff
05
12
00
0d
fd
ef
ff
09
0d
03
06
04
ff
e6
03
01
f7
fe
17
00
e8
01
06
09
fc
fd
00
ff
01
f5
02
01
06
00
1f
fe
d2
fe
f6
01
05
01
f7
0a
13
11
f8
00
0d
08
00
fc
fa
e9
ff
f3
04
f7
de
e3
08
04
fd
eb
05
f8
f9
00
ff
e7
ff
f8
e9
fc
fe
fa
fd
0a
15
0a
01
fe
fe
07
01
09
00
fe
07
01
fc
fb
1a
04
fc
fd
e6
09
10
fe
10
04
fe
f4
02
00
18
fc
01
fa
00
03
0c
02
fe
f5
01
ff
23
0c
01
01
f4
fe
f8
04
01
11
fd
0d
d5
f9
03
01
de
0b
fc
0b
e0
02
e9
f5
ff
04
02
fe
0f
f3
fe
fa
00
ff
00
fb
fe
00
01
f9
ff
fe
02
06
fe
04
fd
f6
10
fb
e4
fd
00
ff
1b
ee
02
00
12
0f
f5
f8
dd
04
04
e4
fd
03
fd
07
fe
ed
e5
04
00
ff
ff
fe
03
ea
04
20
f9
fb
ff
f8
26
ea
04
01
00
fe
02
e3
16
fc
f8
f7
fd
00
f3
00
fa
05
15
0d
03
18
f8
02
ff
ff
00
fe
0a
02
00
13
f9
f7
ff
fd
01
e4
12
fb
ff
00
0b
07
f3
fc
0c
02
01
f5
ff
02
05
f0
02
f4
ff
15
fd
e8
f7
fb
ff
e3
03
1c
f4
01
07
02
07
00
0a
00
fd
fd
ff
02
ff
fe
00
dc
fa
00
ec
ff
e2
02
00
fe
07
02
04
04
09
0b
03
fa
ec
f0
fd
f9
09
fe
e9
ea
01
22
fd
03
f8
ef
0c
f3
fe
fb
f8
ee
16
00
01
e9
09
f3
00
03
0a
0b
fe
10
17
12
ff
bb
ff
d3
ff
f0
01
ff
ff
0b
fe
00
06
02
1f
00
01
09
ef
0d
eb
03
fb
1c
04
01
03
fe
03
fd
05
00
f7
fd
02
1c
fe
03
f2
fd
fe
05
fa
02
38
fe
04
16
ff
ed
13
12
02
ff
f8
f7
06
fa
0c
f7
04
0f
00
00
02
18
30
f3
03
05
05
fd
04
04
00
01
ff
02
09
de
03
e6
01
07
03
f1
13
04
e9
04
ff
04
07
0c
e8
ff
f1
06
10
ec
15
fb
1a
f9
02
01
02
0c
f5
ff
0a
d6
ff
02
00
19
ec
01
fd
0b
00
16
fb
fb
03
00
19
fc
fe
00
0a
03
f3
fe
cd
dd
ff
01
0f
ff
f1
03
f6
f3
05
1a
07
f8
da
05
02
0e
13
05
01
11
f5
da
fe
03
00
fe
09
fb
02
00
ff
02
2a
fe
09
22
02
19
fd
05
fe
2a
01
da
13
0a
fb
09
fa
fa
ff
f0
03
03
07
ff
01
fd
f5
01
f6
02
ff
0a
ff
02
02
ff
02
f1
fc
02
04
fe
0d
00
f7
fb
04
fe
06
01
0e
fc
f2
06
fd
fd
f8
00
1a
fb
fb
0a
ff
0a
00
21
ec
f0
e5
1d
ff
31
22
0c
00
01
05
06
18
0e
1a
02
11
fb
11
0e
fc
ed
05
f4
00
0f
03
0b
fe
fe
f2
07
03
00
fc
12
01
02
30
0c
00
09
f0
03
ff
1f
ff
02
f6
02
e8
14
fd
03
ff
02
00
0f
0a
01
19
20
fc
02
1d
01
16
02
f6
fa
02
f6
10
e1
04
ff
10
02
0f
1c
ed
04
f5
fc
04
ff
fd
1e
fe
f3
fe
fd
02
01
01
00
03
01
02
0b
fc
fc
00
13
fe
fd
fd
e6
e6
09
04
fa
fd
fd
fc
00
c9
fd
0b
fe
e5
0f
08
ea
18
f5
02
01
fe
24
13
f9
f5
0f
04
02
fe
ff
15
0c
fe
0e
06
16
03
08
0f
f2
19
ff
02
fa
0b
fe
f6
00
da
f7
ff
00
e5
03
ec
00
0f
10
08
00
03
13
f7
04
06
09
fb
03
01
ed
14
fa
02
05
fd
f8
07
01
fe
fd
02
02
f7
02
1d
24
fe
f4
fd
fe
01
e9
fe
22
fc
02
04
02
15
00
05
d1
01
1a
03
00
f8
01
05
fd
1e
02
fa
fc
08
fe
02
01
00
fb
00
00
fb
fe
18
ff
fc
fd
ef
ff
06
01
fe
f9
15
fd
e4
01
04
e6
07
01
e8
f5
ff
f2
ff
f6
e7
07
e0
06
fe
02
fe
0b
0e
02
00
36
19
16
fc
02
0d
f9
f5
1a
ec
19
f8
0c
04
12
02
01
02
fd
05
11
00
f2
f6
fa
07
0a
f7
ff
f7
19
ed
03
00
11
01
01
0b
02
08
11
13
fb
03
04
00
35
05
01
ed
fd
fe
fd
18
fe
02
06
17
08
02
fc
f5
e7
05
ff
13
0d
fc
2b
f6
03
ec
0b
03
fd
02
ec
02
fc
ff
fe
fc
01
01
05
eb
ff
02
fe
0b
f5
fd
0c
03
00
fe
f6
0d
01
07
fb
fc
ff
13
24
00
05
17
13
25
f9
10
ee
03
d8
02
fb
00
00
07
fe
20
ee
04
fa
fd
fd
f6
1d
02
16
fe
23
ff
fa
04
f9
0f
01
02
ff
18
18
f1
00
04
fc
04
ff
15
03
03
00
13
19
02
00
08
05
12
00
02
06
ff
03
fd
11
f0
03
05
11
f6
11
ee
03
fc
fb
f5
06
f0
f5
fd
07
0b
f0
fd
01
02
13
01
ec
10
10
00
e5
02
10
fb
fe
01
f5
02
03
fd
03
fc
02
13
00
fb
0f
03
00
03
ff
02
ff
02
00
e1
fd
0e
ff
fc
fe
fd
01
05
03
08
04
f8
00
f3
fb
05
08
f0
00
dd
19
fe
04
ff
e5
02
02
0b
fd
02
ef
f8
02
16
fc
ff
19
11
e3
f6
03
01
ff
03
06
13
11
01
e7
fd
ee
01
09
00
00
ff
ff
fc
06
1e
ff
05
01
f5
fd
ff
10
11
fc
fc
f1
ff
01
f5
fe
fd
0d
08
ff
fa
fd
01
0c
ff
00
fe
f3
fc
01
d0
02
03
ff
1d
f1
fe
ef
e6
03
f0
03
11
10
05
01
fd
02
ee
f4
08
fc
ff
d4
ff
fb
00
00
01
fe
ff
09
12
ff
03
ff
fb
13
02
02
02
02
fe
0b
10
0e
14
fd
00
00
de
15
f0
fd
eb
00
05
13
0f
0c
05
07
00
01
01
0e
02
0d
12
fd
01
ff
fe
09
06
0a
fd
13
f7
ed
ff
fb
f9
f1
e3
01
01
02
fa
05
0c
05
fb
07
00
04
f1
ff
03
fd
fe
c0
ff
c7
ff
07
db
02
fb
11
02
01
fe
f7
1c
12
03
fd
08
f0
f9
fe
fe
01
1a
02
f6
fe
fd
ea
00
08
01
04
00
f8
02
e9
07
fb
fe
f6
f0
f5
00
0f
00
f9
de
fd
04
fe
01
06
fd
01
06
f3
fa
fd
05
02
03
fd
fc
00
1a
ff
eb
fc
e3
03
07
05
d7
ff
28
eb
e6
0e
08
02
f2
15
f7
ff
0e
ff
00
f3
ff
e9
e8
09
0f
f0
00
22
ed
10
00
fe
01
f4
fb
fc
12
02
fe
0b
07
e3
f5
f3
00
f8
02
fd
ff
da
01
00
0e
09
ff
f9
10
ff
f8
01
16
ff
fb
18
14
fd
0b
e8
01
02
ee
03
fd
0a
08
fd
07
02
fa
05
06
05
09
18
00
01
f6
08
07
08
ec
05
ff
23
0c
e9
f5
01
28
f2
fc
06
f0
03
fd
e2
00
02
ff
09
0b
10
07
02
03
fc
00
fc
fe
02
03
05
fa
f9
fd
1b
fd
ff
03
f0
0d
08
01
ff
03
02
ea
11
fa
ff
f9
02
0f
08
01
16
df
05
01
01
02
fa
01
fc
d0
05
ff
02
fc
f7
f6
0d
00
f0
f4
f0
fc
15
06
0a
00
fd
ff
ff
fd
04
d8
01
f3
08
02
ff
1a
fd
ed
03
f4
03
01
0f
00
fe
10
06
fe
03
f3
02
00
f7
1a
fc
02
fd
ff
00
01
00
ff
fd
e8
04
1f
0c
08
12
08
fc
ff
fe
01
29
00
ff
06
05
ff
12
05
f7
06
e1
01
1e
0f
00
f7
fe
f1
02
01
00
ff
02
fc
fe
00
01
02
fb
ff
02
ef
fc
03
ff
10
fc
0d
04
f7
01
fc
e8
0c
13
fe
f9
03
cd
08
fa
f3
e9
fb
f1
fd
09
06
0a
fe
1a
00
e4
1c
02
07
04
ff
0b
f6
09
16
01
0e
13
07
10
e9
0c
05
f2
00
f8
04
fa
01
02
f9
0c
fa
0a
19
09
f8
00
01
00
e0
01
1a
02
f0
02
f9
fc
f9
03
ef
fa
e8
05
fe
00
00
e7
05
00
e1
ec
fb
02
f5
fe
07
fc
fb
fd
01
f1
f1
f7
01
ff
f4
04
08
13
13
03
02
fc
09
fe
00
e4
f8
0a
01
02
fe
03
03
0b
0d
fd
fc
02
0e
1e
ff
13
ff
05
fd
ff
06
00
f3
01
01
ff
32
0a
05
03
0a
f2
1a
0e
28
f4
ff
fe
02
ff
02
1c
0c
0a
24
0d
fd
02
fe
e5
ff
eb
02
fe
08
e8
ff
fe
e7
04
f6
fe
00
05
09
ef
06
02
e2
1d
fc
00
13
04
0b
02
1b
e7
fc
20
f5
07
f9
00
ff
f7
fb
fd
00
00
07
0a
fc
08
08
f4
03
fd
02
fe
fe
00
05
f1
f5
0a
fd
0c
00
02
fd
fd
03
f9
dd
ff
02
fa
f7
f7
03
ff
fe
12
fc
01
15
00
f3
00
ee
03
fc
04
04
00
05
00
fe
03
00
00
fd
01
18
00
00
fb
ee
ff
f9
00
ed
f4
00
08
03
f9
ff
fc
0b
02
fc
08
01
fa
fd
fe
05
0f
ed
0e
01
1d
0e
0e
ee
02
fe
fe
0b
08
02
fe
fe
05
02
fe
00
00
01
0d
01
07
01
03
01
fe
ef
f6
fd
e3
f4
fd
07
01
28
03
fb
02
f4
fe
00
07
04
fa
ff
05
09
e8
f5
fd
df
fe
04
f7
05
ff
f6
15
00
01
0c
fd
f5
04
ea
04
ff
05
12
0e
fc
ff
fb
f7
08
04
0d
02
03
ec
fe
fe
ff
07
05
11
ff
ff
02
02
01
01
fe
ff
05
f0
07
f0
fd
03
02
fe
fe
f5
07
f4
02
03
fc
ff
08
f4
fd
00
0e
10
1e
f9
09
e9
0c
ed
fd
05
fa
06
f6
fd
0d
e9
fa
fd
02
f7
18
09
fe
0c
ff
f7
00
ed
ed
f7
ff
01
00
ff
12
04
ff
ff
09
f6
05
01
07
03
fd
fe
07
09
fe
09
f8
05
f5
02
01
ff
07
ff
00
f6
0d
e1
07
fb
01
04
ca
fc
01
fe
e9
fa
ee
00
f9
0f
fd
02
02
01
02
0e
03
f3
f8
05
01
10
ea
06
01
0b
fd
ff
09
00
11
00
eb
00
e8
ff
ff
fe
fa
04
ff
fe
fe
0e
01
ff
05
00
0c
01
f0
fe
09
ff
f6
fe
fc
06
e8
f1
fc
00
fd
06
11
01
11
04
03
f7
ff
1a
16
10
d9
f6
02
f0
f5
01
07
fc
04
0f
12
26
00
ff
08
f2
fd
f6
ed
0e
00
f7
03
0b
02
03
00
01
f9
03
ff
0f
0d
03
eb
01
09
06
fe
0c
ef
00
05
08
01
00
04
fd
0f
ef
fb
fe
08
01
fe
16
fe
02
13
e3
07
01
05
fb
f7
ff
04
ff
fe
0f
fa
10
fa
00
f1
1d
f1
03
17
fc
09
f4
fb
00
ff
02
01
02
01
02
ff
fc
ff
f6
0c
01
05
f9
f6
f8
02
07
03
02
01
fd
03
0f
23
03
fe
01
d7
ec
04
ff
02
0a
f7
09
17
ed
e5
1a
01
03
fc
07
0c
fb
fa
f4
fd
fc
03
ed
fe
f9
fe
ff
01
d7
fd
ff
ed
f8
fb
03
04
02
13
f8
d6
03
09
f9
01
00
ea
03
e0
ff
07
0b
01
04
c6
fd
15
01
02
f9
00
01
00
ff
f7
f7
fe
ff
fd
f5
06
02
ff
00
eb
ff
e7
f2
fd
05
fe
14
01
02
03
04
fd
e8
1e
f3
fe
f0
ea
e1
fd
04
02
0c
e8
02
0a
ff
06
00
d8
03
fc
05
00
ff
fe
03
fd
06
ff
02
0a
04
f7
ff
ec
02
09
fd
00
fe
f2
e0
d7
e6
d3
fd
fe
f7
fc
fe
ed
f0
00
f0
02
cb
04
fb
1b
e5
fe
cc
fa
0c
18
02
01
1d
e3
f7
15
00
fe
ee
f5
1b
16
ef
fd
14
ff
14
fd
f8
02
fe
f3
06
f9
09
f4
f5
04
f7
0f
fc
c4
04
ef
00
01
fd
02
03
0d
fc
fa
0a
ec
04
f0
ff
fe
fa
f8
05
d7
1a
01
fc
01
fe
e6
fe
07
00
02
0d
0f
0d
05
02
09
eb
ec
e9
13
01
05
0c
03
fc
01
00
f0
f9
fe
00
fb
fd
02
f9
07
ff
fb
f8
fc
df
02
fc
fc
fe
00
08
f7
fd
f1
fd
01
03
14
e3
ec
fe
16
f3
09
03
04
fe
e2
05
ff
02
01
03
f6
0e
17
e8
01
04
00
07
df
fc
fd
1f
ec
fd
01
08
15
09
fd
00
fd
fa
fd
17
0f
01
db
08
fd
fd
e3
f7
0f
00
fb
04
04
d7
ed
0e
ae
02
fe
ff
f3
f7
fc
ed
18
0a
03
04
08
fe
01
01
ff
ff
fc
fd
fb
01
fd
01
ff
fc
02
00
ff
02
00
ff
01
05
fb
fc
fb
fa
ff
00
ff
04
02
fa
00
fb
fc
00
00
00
01
f8
01
02
04
04
03
fb
02
ff
01
fb
fe
00
00
fd
fe
00
fd
00
01
fd
fe
fb
05
ff
ff
fb
04
ff
ff
00
01
fc
02
fd
fb
ff
fd
fb
06
01
fa
fe
fb
fe
01
f9
fa
fe
02
01
00
fe
fb
ff
01
fd
ff
fc
fb
00
fe
00
01
02
fd
fe
01
fe
fd
fc
fc
01
00
ff
fd
03
fa
00
01
fd
ff
00
ff
fd
00
f9
fa
03
fd
00
01
03
fc
fe
01
fb
fe
03
fa
fe
fd
01
fe
02
03
01
fe
fe
fa
00
03
fc
03
fe
ff
fe
ff
ff
02
00
02
fd
fc
fd
00
00
02
00
00
fd
01
fc
fc
05
fc
01
ff
00
fc
03
01
fc
00
fb
fb
01
ff
01
02
02
fc
06
fc
00
ff
fe
00
00
fe
fc
00
00
fe
fd
03
00
fe
fc
ff
ff
00
ff
02
00
02
ff
00
fe
01
04
01
04
01
fc
ff
fc
fc
fb
01
00
02
00
04
fe
06
01
01
00
00
ff
fd
02
ff
ff
02
02
00
00
fd
ff
02
02
fe
fb
fd
02
01
fa
fb
00
fe
fd
fd
02
fe
f9
08
fd
02
f5
04
fe
00
e4
01
dd
db
fd
ff
f8
fa
0e
02
17
01
ef
03
00
1d
fd
e3
02
ef
fd
ff
e2
ff
fd
fd
02
ff
11
fc
fe
0b
01
e3
02
ff
f8
13
ff
0d
fc
f9
10
21
f6
fe
fc
02
03
03
02
04
f9
01
05
02
0c
13
f0
f7
f7
fb
01
00
19
fa
ff
00
1a
08
06
f8
fd
01
fd
00
e1
ee
00
01
fb
00
fe
00
07
01
fe
0d
16
ff
25
e4
fc
f6
fc
e6
00
bb
05
f5
ff
03
e1
fc
03
f0
fd
ee
09
0a
02
f9
05
ff
fd
03
00
e8
ee
03
ff
ee
03
06
fd
07
15
fc
09
f7
05
f2
ff
fb
fb
e9
04
10
fe
08
f1
00
03
03
cd
f2
f6
02
01
02
01
02
0a
fa
ff
03
f7
e5
0a
ff
10
02
02
02
0d
19
fa
0c
01
ff
06
ff
e9
09
00
e7
f5
ff
f9
1d
01
f1
f2
03
fc
fe
fb
fe
fb
13
24
01
fe
fd
06
fe
ff
fd
fe
ee
07
01
fc
ff
01
06
fd
ff
fd
18
14
05
00
e8
06
02
ff
13
01
0a
00
f8
fe
fd
fd
07
ed
f6
04
fc
07
fe
fe
fa
f2
0e
1b
fe
01
00
fd
fd
fe
ff
ff
fd
02
01
fd
03
02
00
fc
00
fd
fa
fc
01
00
fa
ff
fd
00
fe
01
fe
00
04
ff
fb
02
00
05
fe
01
fd
01
03
01
ff
fd
05
08
03
ff
05
02
01
fd
fb
02
02
ff
01
ff
fd
01
02
fc
f9
ff
f8
02
ff
fd
00
ff
02
00
fc
f9
ff
00
f9
01
fd
ff
04
00
00
02
fc
ff
ff
00
fe
fe
fd
00
02
01
01
00
ff
fa
ff
fa
00
fe
fe
01
fe
fd
fe
ff
00
02
02
ff
fd
03
fe
fd
ff
ff
fe
02
03
00
fe
01
fe
01
ff
fc
ff
01
01
fe
fe
ff
fa
00
ff
fc
ff
02
01
fe
00
ff
02
fc
04
ff
fe
fa
00
fe
fb
00
00
fe
02
fa
fd
fd
fd
02
02
fe
fb
00
00
fd
02
02
00
fe
ff
04
02
02
fe
fc
04
ff
fd
01
fe
fb
fc
01
fe
00
fb
05
02
01
00
ff
fa
fa
fd
03
ff
fe
01
01
01
00
fc
fd
03
fd
02
02
fb
01
fe
fc
ff
fd
03
00
01
02
ff
fc
00
02
fd
ff
fc
01
04
ff
01
01
01
fb
07
01
01
02
05
fe
fe
fa
01
fe
01
fe
fe
01
ff
fd
fc
03
00
ff
01
ff
01
fe
ff
0e
22
02
ff
fc
07
01
ee
f8
fb
1f
fd
da
01
00
04
12
fe
fd
ef
08
fd
ea
01
f9
01
0a
00
16
f1
fb
f9
01
f6
03
19
00
02
0a
03
fe
02
00
fe
d3
ff
02
e1
00
fc
00
01
ff
0b
06
0b
ff
f4
1d
00
14
20
fd
03
14
01
ff
fb
00
03
0c
02
da
0f
0a
16
de
ff
d3
06
16
fb
fd
03
0c
cd
f7
ef
fb
00
0d
0a
f6
1b
06
fb
fd
ff
f0
00
00
00
02
fb
01
01
fd
ee
15
0f
04
ed
00
f3
fa
f6
fe
f7
ff
01
02
f6
fd
0a
1a
0a
01
f8
fc
05
f8
04
01
f6
f2
04
01
fa
01
12
fe
0e
e0
02
0d
ef
fe
f9
01
00
ed
05
02
02
ff
f1
e9
06
01
fe
e3
0b
fe
00
03
ff
03
01
fb
0a
ff
02
03
dc
00
fd
0a
fe
06
00
17
f4
05
10
fe
fe
06
f8
f7
eb
01
fb
f7
f9
0f
0f
fe
f8
18
00
04
03
f3
07
05
ee
08
fe
ff
03
ef
fe
f6
02
eb
ff
f0
02
01
ff
ec
04
fc
03
fa
10
f3
00
01
f3
08
ff
02
05
00
fd
fe
0e
0c
00
f7
09
04
f1
06
06
04
ec
fe
00
0b
ed
00
03
e9
0a
ff
1a
04
00
02
0a
03
16
e8
ec
f2
fc
09
00
ff
00
df
ff
ff
f3
ff
ff
0a
11
f8
05
ef
fd
f0
0a
01
10
fd
ff
01
05
01
fe
08
05
01
03
fe
ff
01
01
01
ef
ff
fe
01
f2
03
0d
00
0b
01
00
fd
02
e7
b5
01
ff
f8
f7
04
f2
03
03
ff
01
fe
06
07
f6
05
00
13
10
ff
0c
ff
03
fa
da
08
07
ff
fe
0d
0a
d1
06
0c
fe
e9
02
e0
f8
f8
ff
00
fe
0b
ff
06
16
09
f9
01
e7
03
06
08
13
fa
f6
1b
00
fd
d0
02
e2
0d
ed
00
dc
fd
00
05
04
fe
0d
02
02
fc
f3
00
fe
07
15
04
01
db
ef
09
04
02
f0
dc
0a
f3
ee
fc
fb
e5
fd
ff
02
0a
f0
f9
fc
fd
01
ff
01
0b
fd
fe
01
ed
fb
f2
07
02
08
00
00
03
10
01
ff
fe
00
00
0b
d3
06
fa
f1
15
08
0e
e0
e2
14
f3
04
00
ff
15
fc
05
07
08
02
02
02
ff
ef
13
fb
16
01
ee
00
fa
0d
0b
f6
ff
ff
03
06
01
03
fb
ee
20
fe
04
1d
fd
fa
03
f5
f2
03
e5
0a
0c
eb
ff
01
cd
13
01
02
ff
f4
d6
00
e6
06
14
09
00
fd
ff
fc
03
ef
fd
ff
f9
03
fd
ff
02
fe
0b
01
02
05
0f
00
0a
f6
ee
ff
f8
fd
01
08
01
05
00
e0
01
14
ff
ff
01
fc
04
06
ff
ff
0f
02
ff
ee
02
fc
fd
05
ff
fa
ff
f0
ff
f5
fa
f3
0a
08
0b
01
08
13
00
05
fd
00
fc
00
11
08
15
02
16
02
02
fb
fc
df
00
04
1e
16
04
03
03
fe
05
fc
e4
24
f7
06
f8
01
0c
04
f9
00
05
00
fd
fe
00
fc
f9
f2
04
08
07
e5
fd
11
fc
03
17
fe
04
0b
04
f1
06
1e
00
e8
ff
03
20
05
01
f6
f5
01
04
fc
02
04
02
12
ff
02
e6
02
06
10
01
0b
0f
06
f1
e3
01
f9
05
00
fe
00
e8
f0
fe
01
01
00
01
fe
02
06
02
fe
04
00
f5
ff
f9
ff
02
05
fc
1c
fb
f8
ff
ff
fe
f7
eb
fb
03
04
f0
f9
e9
11
24
f5
08
fd
03
04
06
00
fc
10
0d
01
01
00
ec
04
09
00
e1
fe
ff
ff
00
f6
f4
f3
fd
fe
02
fc
03
05
ff
eb
12
fe
01
fc
02
fe
01
f8
00
03
0e
05
02
07
fd
00
0d
c4
fe
fe
df
0a
0a
fb
0a
fc
0c
e8
00
01
fd
00
05
f8
ee
0b
27
ff
0d
01
ff
00
08
02
f7
e8
0c
05
fd
04
fc
fd
15
04
e3
fe
ff
0c
00
e8
ff
f3
00
00
f9
01
02
fe
00
00
06
ff
fd
ee
02
fb
ff
02
fe
04
ff
f8
fd
f6
fd
0b
f9
07
ff
fb
dc
14
f9
f9
fd
03
03
fd
1d
f6
fd
f9
04
fd
1a
13
22
0b
fa
ff
0b
16
f7
02
ff
0a
01
01
f2
07
f5
04
08
01
0c
ff
fa
00
fe
f3
04
04
1a
0e
0c
01
04
06
00
fe
f8
f4
03
03
ea
ff
fd
1d
00
c7
e4
e6
fe
f9
ff
02
15
08
01
f0
fc
02
00
14
fc
e1
fc
df
09
00
11
07
df
03
00
f1
03
08
fc
25
fd
f7
01
07
fc
ff
f2
ff
00
05
f9
07
04
f9
0a
f1
03
fd
e3
0c
ef
fd
0a
fb
02
06
06
14
11
1a
fd
01
03
dc
f3
26
01
04
05
1d
ea
00
f1
15
03
fc
fd
03
08
00
05
f8
ec
03
fe
02
04
06
02
00
fb
fe
0a
00
ec
b8
fc
12
04
fe
00
ff
0b
0a
00
fd
01
03
00
1a
02
d5
fd
fb
d1
ff
32
f3
ff
04
01
03
fa
14
00
03
02
fc
f7
fe
02
f9
0d
15
03
ff
01
f1
00
0a
12
10
1d
05
f6
01
ff
02
1f
01
f1
d5
21
01
f3
02
f7
0a
00
ff
f5
ff
fe
f8
00
fe
00
0a
fe
06
04
04
fc
00
00
fc
04
05
ff
07
04
10
01
d3
fd
f1
02
f6
ff
1e
08
ff
f7
ff
03
09
11
f9
fe
04
f9
00
f1
00
11
f4
01
ef
17
fd
e8
05
1f
05
01
03
ec
fe
23
09
ff
fe
fe
04
ff
fa
0f
00
0e
ff
0c
fd
0c
02
01
e9
0f
01
17
11
01
0c
fc
e8
fe
07
ff
fe
00
0b
ca
01
05
f3
fe
04
04
f9
00
00
ff
fe
03
01
03
0d
e2
fd
00
02
01
24
fd
05
0c
00
0b
d7
f2
0a
fb
e2
10
fa
0b
ed
fa
f7
e9
05
01
03
ed
05
08
04
00
05
fb
fe
08
16
05
03
0a
fa
04
ff
16
ff
03
fd
04
0b
05
0b
00
01
fc
1f
15
fb
01
0f
07
0e
f7
03
17
e7
f3
02
ff
00
05
07
0c
0c
f0
ff
ff
01
0d
fa
17
02
26
04
0a
fc
eb
0f
ea
f4
fe
fd
01
10
d9
fc
02
f4
f5
ff
04
0f
fd
09
ff
f2
04
01
e8
fd
05
00
08
fd
05
fb
fc
02
f3
0b
0a
05
1a
0a
fe
f2
ff
05
fd
fc
01
d0
f3
f7
fe
fe
04
02
05
03
fa
05
fd
04
1e
01
e6
06
09
fb
04
fe
dc
16
fd
e8
fc
f4
01
f6
05
fe
12
00
03
ff
fd
ff
05
fd
01
00
02
f3
05
06
ff
f9
04
dd
ff
05
fb
f2
0a
f8
fa
03
08
f9
01
11
f1
fd
07
ff
01
0c
01
f9
e4
fe
0c
f3
b3
10
01
01
0a
e0
05
20
fc
05
f3
fb
24
0a
07
fb
0d
03
dc
fe
e5
fd
01
fa
05
03
0e
03
00
e8
09
00
06
f9
f4
ec
00
fb
15
02
00
da
06
fe
14
17
fd
00
fd
ff
22
01
ff
f6
03
ff
ff
27
02
07
02
0a
1b
00
06
14
e7
f2
00
07
ff
00
ef
ea
07
1b
ed
f5
fd
02
ea
fb
0d
ff
00
02
fd
ff
07
0a
fe
00
0e
15
ee
02
ff
ff
fc
ff
17
18
00
01
05
fd
fc
f2
dd
f5
02
fc
05
11
f6
0e
c5
00
10
01
02
01
09
ec
ec
e5
e8
ff
00
ff
ed
ed
04
fc
fc
07
1f
04
03
df
02
0c
fc
02
fd
f9
f6
f7
04
1c
f6
01
fb
06
01
cc
03
00
17
fc
ed
ff
04
13
02
ff
f7
e3
ff
fe
ed
f4
e8
00
e5
f8
f8
21
ff
01
ff
0a
fc
02
0b
e9
19
fe
fd
01
03
f9
ff
01
0f
f5
f5
01
17
ea
01
07
e7
fe
ff
f3
ff
0a
05
07
fd
05
fd
00
fc
02
01
ff
02
01
06
ff
03
fe
fe
12
fd
fe
fd
f2
ff
fc
00
c8
08
08
12
06
05
04
ef
fd
02
f8
0c
02
10
00
07
f4
13
04
14
fb
f3
00
f1
ed
01
00
e8
0c
16
df
00
ed
f8
fc
f9
de
03
02
24
00
02
fa
09
fe
fd
ff
fa
03
fa
fc
09
e5
00
0e
04
00
f7
ee
03
f7
ff
01
fe
07
01
15
fe
fa
00
f3
01
fe
0c
06
00
03
0e
fa
01
d3
00
e9
0b
f7
f7
02
fa
00
01
f8
03
10
0b
f8
0d
02
fb
06
0f
05
00
01
08
ec
ff
ff
00
ff
ff
00
f9
03
fc
07
08
08
02
ff
fd
fe
01
fa
ea
01
f4
13
ff
ff
00
14
df
09
02
0c
01
f0
fe
00
fd
01
0f
00
01
fd
17
0c
09
09
07
ff
fd
00
ee
e2
04
fe
15
ed
0a
03
fa
15
dc
fc
01
00
01
11
0d
15
fd
08
0d
02
fe
0a
03
2a
00
21
fb
fc
09
04
f7
03
01
fd
fc
fb
03
fe
0b
ea
06
fe
04
fb
07
02
04
02
06
06
02
0e
f9
ef
2e
01
0f
fd
ff
07
0e
fe
c3
02
01
05
f8
05
fe
f2
ff
fc
e4
04
01
fd
04
0d
01
fa
00
fe
08
00
fe
01
01
02
db
02
fd
e7
fd
0d
fe
05
03
11
00
f9
03
07
fe
0a
19
0d
01
f9
fb
1e
01
f5
1d
ff
e2
03
07
04
13
13
f8
fe
04
e5
e8
00
fc
02
0a
06
f6
17
01
f1
04
f6
10
f9
ed
05
0f
fc
f0
fd
e8
00
04
10
f7
06
ff
21
f0
da
05
06
fd
dd
ff
f8
fb
ea
fa
00
04
11
00
ee
fb
01
fd
0e
03
fe
f2
09
00
ef
0b
04
01
df
fe
fc
fe
f6
f0
02
0d
09
00
dd
00
03
03
f6
08
09
03
f1
01
08
01
02
f0
11
09
ff
01
02
03
02
f7
19
04
02
04
05
fc
fd
fd
02
00
fe
f5
ea
f6
f4
03
01
02
cf
15
ce
03
09
16
f6
f6
14
02
19
0f
06
01
fc
0b
03
09
ea
01
02
01
ff
0b
e0
f3
04
05
05
f3
04
f8
f8
f5
f5
01
04
02
13
03
0b
03
0d
03
ff
00
f7
01
05
00
09
f8
fe
f6
0a
f6
14
01
fe
0d
fd
00
03
f1
05
04
fc
f9
f4
fc
19
00
ff
ff
01
00
07
04
0e
e7
03
00
ff
02
fd
f2
01
01
0a
fa
fd
fd
10
08
fb
fe
03
f4
fd
fe
d9
02
18
02
ed
fc
fd
fe
02
02
02
ff
fe
d7
fe
fe
16
03
e5
03
f6
fd
f8
01
0e
00
fb
0c
04
fc
09
f6
fc
df
fa
fe
fb
ce
01
0b
fd
e9
fc
0f
fc
07
fd
d0
0b
f2
f7
01
fd
a6
14
05
19
ff
07
f1
05
fd
e5
fe
fe
01
02
06
01
fb
01
00
f1
f8
fe
d9
e2
04
fc
ff
0d
fd
e9
e1
f2
fd
f9
d9
02
ff
0a
00
08
0f
ff
ff
f1
fe
fb
f5
01
03
0a
02
ff
00
ba
fd
e2
00
ff
eb
02
de
fd
d8
0b
01
0d
ef
09
02
2e
fe
09
fd
00
ff
00
01
fa
00
fd
02
ff
ff
00
08
0e
00
00
03
f2
fe
00
02
00
03
03
ed
c5
ed
ff
fe
02
fd
12
0f
ff
fd
ef
f9
f0
06
0e
e3
0a
f4
00
fa
ff
0e
02
f6
db
ce
05
03
ff
05
fd
f8
04
12
1c
32
02
01
05
11
03
05
01
ff
0a
0b
0d
06
fd
ef
fb
fd
e9
00
05
01
06
fe
01
17
02
00
0c
01
f9
ea
07
00
fb
f2
17
07
01
f5
fa
fb
00
fc
fb
ff
08
08
08
fa
05
10
fa
eb
05
00
fe
0e
01
fe
f8
10
03
f7
f4
ec
01
12
fa
f8
ff
fc
ed
05
05
ff
e8
fe
00
db
ff
fc
fc
fe
fd
fd
01
01
15
01
0d
01
e6
fd
10
fc
0c
01
10
e1
f2
04
13
0c
02
de
1b
fe
fa
07
03
1b
08
fa
e7
0f
09
1d
01
2f
0b
f8
f2
01
01
f6
fc
fb
02
00
04
f7
00
31
00
07
00
15
fe
f2
01
09
02
03
0a
f3
ff
f1
e1
fa
0d
07
f9
0b
07
06
fb
00
08
09
fd
fe
03
fd
04
f7
0c
fc
f5
00
fc
1e
08
ff
eb
1d
01
fb
10
00
26
01
e8
18
01
15
f3
0c
09
fe
05
fb
ff
10
25
01
03
f4
fd
02
fc
fd
ee
05
00
01
01
ff
02
05
e7
01
00
04
fe
07
02
f2
ff
00
02
e6
f5
03
f1
03
fb
fd
0e
0e
fa
00
01
05
fb
07
04
fa
0f
14
06
02
00
df
00
08
17
ff
05
00
01
06
01
10
ff
0e
1b
e8
fe
08
19
01
0b
05
fa
03
08
11
f1
03
05
09
00
02
fb
ff
f6
01
ed
0a
fb
08
10
ee
fe
04
04
f3
10
02
ff
03
03
0a
05
0b
fb
0d
04
02
fd
fe
e6
04
fe
f8
10
0c
05
0e
fe
02
fc
0c
ff
12
05
e9
fb
0c
07
0b
ff
eb
00
ed
f3
03
ea
06
0e
03
1c
fd
fe
0d
08
00
07
02
02
d6
02
02
05
fe
de
04
ed
03
09
fe
03
01
ec
ff
08
d4
ef
01
02
14
f3
fc
18
ea
03
d8
04
e3
ee
e8
f5
00
00
d0
14
ff
0f
ff
02
ee
fe
05
f9
02
06
0c
fb
10
0c
0d
fa
d6
02
0f
fe
0c
00
ff
f6
f9
01
ec
08
0e
fa
01
fd
ff
07
1a
ea
01
01
07
01
ff
f9
02
f5
d8
cc
fc
e7
05
ff
e1
fd
fe
19
fd
ff
04
02
02
03
fc
f4
25
fb
05
07
08
01
ff
03
fe
f5
10
e3
04
01
e5
05
fa
ff
fc
f6
f4
ff
fc
04
ff
05
03
e3
03
ff
06
01
f3
ff
ed
01
ff
fc
12
ee
03
fb
fc
00
02
13
1e
f4
00
12
f3
0b
06
06
1e
f7
19
00
fd
fc
fa
06
fe
f3
ff
fc
01
ff
eb
0d
f1
01
0f
ef
02
fd
f8
28
e8
00
fc
01
01
f3
f8
08
ff
09
19
fe
04
f8
ff
00
fe
1a
c1
01
00
f5
06
16
fe
01
d8
ff
01
03
f8
fb
05
ff
f8
f2
18
f1
04
03
fc
17
f8
04
1b
ed
0a
02
e7
ff
fe
fd
ff
fe
0d
fc
28
fe
0e
fb
f8
03
15
fc
e1
10
01
01
00
f9
00
fb
ff
04
eb
02
01
ff
fd
ff
fd
fe
01
e2
ff
ef
02
c4
02
de
fe
0b
ff
0a
ff
16
07
0f
0c
0c
05
07
ff
0b
01
00
0d
01
e0
d2
ee
02
0b
fe
0b
fa
fd
f6
ff
ff
d1
0c
14
0a
01
fe
eb
ff
1c
ff
eb
03
03
fd
15
02
21
01
01
08
ff
03
0f
e1
f9
0b
00
fd
05
05
05
f8
04
02
05
02
ff
03
02
09
f6
e9
fe
05
02
00
0f
00
02
f9
0d
fc
05
f2
05
fe
ff
d8
ef
03
19
ee
f9
0c
00
f1
e7
03
13
c7
fb
e0
d9
ff
00
00
fa
f4
07
02
00
00
fe
fc
fd
f6
01
02
01
dc
fa
01
02
fe
03
03
ff
02
0d
11
01
fc
01
d6
03
0c
03
f8
f8
03
05
1a
0d
fd
ef
03
ff
fe
10
03
05
10
0f
fd
fd
02
ea
e6
ec
01
f3
ea
23
ff
0a
fb
f2
f2
01
01
03
0f
d3
f3
fd
14
0e
02
02
2f
ff
fe
fe
1c
0b
ff
f2
00
05
08
01
01
fd
ed
ff
fd
09
09
f8
fe
07
06
1b
fd
01
04
04
f8
fe
10
fb
0e
fd
f7
ff
00
ff
ff
ff
fe
ec
11
f1
01
03
fc
08
00
05
01
fd
f6
02
f2
03
ff
04
f7
03
f7
f2
fc
01
00
fc
01
08
fe
02
05
05
f2
02
ff
fc
fb
fd
fd
01
15
e7
fc
f9
ff
06
f7
f4
04
02
01
f4
ff
10
01
f9
09
e7
f8
03
fe
03
ff
df
da
00
04
0e
f8
e7
07
00
06
01
02
ee
04
04
04
01
03
fc
ff
fa
ff
fc
e2
02
02
e0
10
fe
23
03
0b
fe
e3
14
eb
01
e8
f1
00
fa
02
ff
f9
00
12
fc
06
fe
fc
f8
fc
fd
02
e7
00
00
0d
02
d9
02
1d
09
01
fd
f6
1c
1b
04
f0
03
15
ea
e1
05
11
04
02
00
04
ff
e5
05
04
02
fc
ff
01
08
1c
fd
fe
11
08
05
01
f7
fd
08
ff
f6
0f
07
0b
fd
01
01
f0
ff
00
00
11
f5
fe
0a
f3
fb
0a
f7
fd
01
01
03
0a
f9
0f
fa
00
06
03
f6
cb
01
06
fb
1d
13
01
12
c1
ef
f2
ff
00
fe
07
25
0f
02
00
08
fd
ff
ec
ff
f8
00
fd
f6
fd
04
f8
fe
03
01
01
09
e1
fd
01
09
f3
f0
ff
f8
f0
fd
fb
fb
fb
fb
f8
f9
e5
10
0e
15
05
0a
00
03
00
07
fb
0f
19
e4
01
10
10
0c
fe
e1
fe
10
01
fd
81
ff
18
01
0e
fd
fb
f5
fe
fe
04
01
fe
d5
01
01
f5
00
18
ff
08
ff
1c
fc
f9
01
f3
0c
f5
f8
f6
f8
05
0d
e7
fe
00
ef
fe
ef
fe
03
0c
f5
fd
ee
03
d5
eb
fc
13
01
01
0b
ee
fb
0e
00
0b
ff
ff
24
20
dc
02
f2
fd
f5
03
ff
02
01
e4
eb
01
1e
fb
0b
fe
ff
0d
00
1d
05
dc
01
0d
0f
fe
01
06
01
f4
16
12
02
ef
fa
fe
07
fc
00
ec
ff
fe
02
f8
03
07
fc
fb
fb
ff
fb
fe
0f
f7
00
0a
fa
fe
ff
e6
fc
f8
ff
01
ff
00
f8
d8
fc
fd
ff
fe
fe
fb
f8
fc
fd
ff
fb
fd
f6
fc
ef
04
02
fe
0b
f6
fb
19
01
04
ff
f2
02
08
ff
05
fb
ec
e9
ee
da
f2
fd
03
01
02
0c
f8
e9
10
f8
ff
00
fe
02
f4
01
00
04
f2
1d
ff
00
f9
16
ee
00
01
02
f8
e8
10
fe
16
ec
fd
06
04
fe
e1
02
fd
15
01
f4
10
0d
1a
ff
01
14
02
03
fe
e6
e3
f6
fb
e0
00
f5
f2
06
02
ff
04
ff
13
04
f0
e2
07
e2
fe
fc
01
18
01
16
02
14
00
e6
f7
d5
fc
12
ff
fe
f7
00
f7
fe
09
00
0c
02
ff
ed
fc
01
05
fb
fe
05
01
02
ff
fe
03
06
e1
ff
ec
fa
fd
00
13
df
08
20
fa
11
08
08
02
00
f2
ff
06
e9
04
f7
12
16
16
01
01
02
00
f9
04
ff
fd
09
04
fd
e2
02
0e
09
0b
f5
fa
f9
03
06
fe
0a
fc
ff
ff
ff
05
01
fb
17
e9
04
16
01
fe
03
13
15
07
00
07
e6
07
ff
03
fe
0d
ff
09
04
03
ff
fe
24
03
04
ea
ff
fe
02
fb
00
06
04
05
eb
03
0c
f4
da
fd
fc
11
f9
1a
f6
f0
07
f6
03
07
00
fd
e2
f5
f5
fd
01
fe
00
fd
04
03
02
fb
0f
ef
12
02
f1
00
00
00
00
17
01
df
fe
03
02
0a
ee
14
fe
0d
01
1a
14
0c
06
fe
e3
01
01
01
18
0b
0b
f1
0a
00
f8
03
d9
ec
20
fe
fb
e2
fd
01
0c
10
0d
e3
fe
ff
ff
f1
09
ff
01
05
09
ff
02
fe
03
19
02
ea
0b
04
fa
fd
04
08
fe
ff
16
0c
fd
ff
0e
f8
06
03
0a
04
f6
08
ff
05
00
f5
03
07
e5
04
0b
01
01
ff
07
ff
10
fd
0b
fe
21
fd
e9
ef
01
fe
f0
01
22
f1
00
03
02
ed
04
03
fd
03
09
01
04
ff
ff
01
fc
fa
01
03
fe
ff
fe
08
01
f8
02
f9
05
06
12
0d
eb
0d
fa
f5
12
eb
01
02
e7
00
f3
00
05
09
ef
01
13
01
aa
f6
ea
03
01
05
fc
e1
ce
11
fd
0d
f9
00
0b
0e
11
fb
f5
ff
f8
02
f8
00
fc
04
14
02
da
15
07
08
03
f8
03
0a
de
f6
00
ee
05
fb
01
02
fb
ff
e5
04
03
05
01
03
ef
fb
fd
07
0d
f9
ff
04
01
06
00
e2
05
03
09
03
06
ff
00
f5
e2
00
f8
f4
ff
0d
f1
fa
fa
ff
0b
ee
f3
03
01
ff
fb
01
04
fb
fe
fe
f3
dd
f2
fa
fe
00
00
ff
1f
ff
ff
fb
fe
00
00
14
f6
0e
fc
04
15
14
f9
eb
08
20
03
ff
02
01
06
f1
fb
1c
ea
00
01
fe
e1
f7
f6
ff
04
02
0f
fd
08
ef
f2
07
fc
fd
fe
01
fd
f5
01
e0
f1
ff
01
fa
ff
ff
03
e6
0a
fe
06
f1
f8
1a
ff
ff
d2
ff
fb
05
1d
02
e4
fe
df
0a
f8
06
fb
ff
00
ea
02
03
f7
e8
0a
fb
f5
00
05
f7
13
02
08
d2
02
ff
fc
ee
0d
01
f6
02
fa
09
fd
d6
00
02
04
04
06
fb
04
05
02
fe
01
02
e4
fb
f9
12
fe
16
00
f8
fe
10
04
02
04
24
03
dc
f7
15
f3
02
e7
03
02
ef
f9
00
08
00
f7
fd
2a
0a
08
fd
fd
06
13
01
03
fe
fc
02
12
00
fd
05
01
02
1c
ed
01
ff
20
fe
ef
fd
02
ff
fc
f6
01
00
ec
fb
07
f3
05
f9
05
f0
27
fe
04
0f
ff
00
01
07
01
fe
f0
e3
fb
0a
fe
ff
18
02
fe
0a
0d
02
ff
f3
ff
ee
04
fd
1b
04
05
ff
ef
fb
ff
f4
f2
00
04
00
fe
0a
0c
ff
01
fd
06
17
12
00
04
01
04
03
09
0e
00
07
f1
0a
e5
ff
fd
01
05
fd
e5
06
15
fc
ff
fe
02
1b
ee
fd
ff
25
0e
28
f9
18
de
fc
e7
02
00
00
19
0a
05
01
fa
00
03
06
04
1d
fc
ff
05
12
03
01
04
f5
0a
09
00
05
00
00
01
01
fe
03
e7
01
00
06
03
01
00
10
2f
02
fd
fe
0b
ff
03
02
d1
ee
fd
ff
ea
09
fa
06
0d
01
00
15
01
02
fe
00
ff
0b
20
ef
0a
f8
11
fd
02
fe
03
ff
16
1a
20
ff
0d
f5
0c
00
fc
00
17
02
f9
f4
03
01
ff
fa
02
02
0a
01
06
02
fe
fe
fa
fd
04
e8
03
31
fe
ff
00
13
07
fa
01
f9
11
f0
ec
09
06
fe
fd
05
fb
08
0b
02
f0
fb
ed
e7
2a
f6
f8
fd
2c
10
f5
f6
00
fd
01
03
08
e4
04
f8
02
0a
07
04
08
04
1c
01
fc
04
01
fe
02
fe
f5
ff
ef
14
06
f3
04
ff
fc
fe
15
1a
02
16
1d
03
01
fd
ff
fd
0a
0b
ff
05
03
02
1f
0a
02
ff
19
fa
07
ed
03
e9
07
f4
f3
ff
06
08
fa
f3
fe
f6
cf
13
0d
22
02
08
fb
07
fd
fe
06
2b
0d
04
01
01
01
05
0a
1f
00
02
0b
11
05
03
03
06
00
fb
df
12
12
07
00
fb
01
24
f4
eb
fe
07
06
fc
f9
17
02
e9
01
01
ff
fb
08
0e
09
fa
fd
02
fa
ff
f5
f5
06
fe
18
f3
f7
03
fc
f7
07
c4
00
fd
ff
1b
11
f1
00
fc
f5
02
ff
fc
fa
12
01
12
f3
02
12
fe
fd
00
fd
ff
dd
f9
00
03
06
f4
f6
02
0f
07
0d
f1
04
03
00
ff
01
04
02
f5
ed
03
e7
ff
02
fe
fe
02
fa
f9
fb
02
ef
08
19
fb
f7
ff
e3
11
03
fa
04
0f
02
14
03
01
f7
01
fb
00
04
fd
d7
ff
fe
ed
01
04
fa
02
ff
15
00
fb
fb
d5
15
1f
fe
07
fe
fd
f8
04
06
05
fa
02
e3
fc
ea
04
04
04
f9
fc
e2
f0
0b
0f
ff
02
ef
04
ee
09
04
f0
f1
fc
06
fe
b4
ff
f6
02
ec
00
0c
fc
00
fc
f6
01
09
ff
f9
03
02
ed
01
11
fe
07
01
fc
d5
03
03
03
00
09
05
d9
ff
fc
ff
fd
f5
fe
02
d7
00
fe
04
f2
00
f6
fc
fe
0e
01
03
d7
0b
e4
fe
00
ff
00
01
d9
ff
11
06
f7
fa
01
fa
0f
0f
02
00
ff
fb
fe
ff
dc
ff
fc
fc
0a
02
01
fb
fa
ff
02
23
e8
fe
07
fe
02
02
24
02
f4
04
0c
0d
08
15
f5
01
fb
fe
02
fd
fd
03
04
f4
0f
00
fd
fc
02
f0
e9
01
fa
22
e9
05
ff
e8
16
1c
03
fb
fd
04
fd
05
04
fc
f6
ec
05
fd
f9
02
0b
01
ff
fe
03
0e
00
f8
dd
ff
01
05
08
02
03
06
f9
0b
02
f0
fe
fa
11
03
fc
03
06
fe
f9
e8
fb
01
03
13
01
02
fc
01
fc
f7
02
11
01
0e
01
00
ff
10
03
01
00
00
02
07
12
00
0d
fd
ff
ff
00
fd
03
00
ff
f3
04
fd
06
03
f4
01
06
00
fb
ff
10
fd
fe
03
ff
f6
f9
06
fc
e6
13
fd
e8
29
04
11
fd
e7
f4
06
d9
03
fa
be
fa
f5
fa
ff
02
ea
e9
0d
e1
fd
00
08
01
f4
dd
f6
fa
f9
fd
ff
02
ed
fe
ff
e7
ff
ff
04
0f
07
15
00
ff
fa
03
f0
14
fe
08
0c
00
ff
f8
fe
ea
bc
c2
02
f9
fb
02
fd
00
04
f0
f9
00
05
17
01
1e
01
f9
01
fb
11
e9
f1
f5
01
17
02
e3
1a
c0
ff
f8
e3
00
fe
02
08
0e
f4
00
00
fd
02
ff
f4
fb
00
fe
0e
16
19
ff
07
fa
03
00
fb
f5
01
dc
03
ff
fc
18
04
01
05
16
f9
07
12
08
f5
f0
0b
fc
fd
00
ec
0a
fc
f1
f3
fe
fd
00
11
03
0b
ff
0b
fd
e6
ff
05
21
ef
fc
01
fd
fa
0c
0a
02
fe
f0
eb
02
00
07
fd
fc
00
1b
d4
01
ff
ec
f8
f2
fc
02
f3
0e
02
ff
e5
fb
0e
fc
11
f7
06
11
01
04
00
0d
fe
10
06
f5
0b
f4
ef
00
02
00
15
00
15
f0
f4
02
e0
09
19
fb
1a
ff
04
0a
00
f8
00
f7
fd
f3
fc
02
05
ff
ff
ff
fe
02
f1
02
fe
c7
03
f6
00
04
f8
e3
00
0c
02
fc
16
f5
f9
09
0a
0b
06
25
fe
f1
04
ff
02
fd
ff
f2
00
ff
d8
ff
eb
ec
05
0f
ff
ff
ed
09
d2
ec
02
08
09
12
04
02
f5
06
e7
ff
09
fe
01
02
ff
07
fe
04
0a
0f
04
04
06
06
02
07
f8
18
00
0e
f4
02
fc
fd
03
22
04
ef
02
ea
00
ff
d4
03
fe
e3
14
fd
ff
d9
04
1a
fe
f1
09
03
0b
f6
e1
05
ff
06
14
00
08
e9
00
fe
ed
08
fc
fd
0d
14
14
fe
01
ff
01
fd
01
0b
06
ff
05
dc
19
00
22
01
01
02
f2
fe
07
0e
04
fe
03
e8
dc
f5
03
e8
fd
11
0c
ee
f7
00
04
ff
04
ff
03
05
06
ea
08
03
fc
fe
e6
ed
ed
00
09
ef
02
00
0a
ea
fe
ff
01
ff
fc
02
03
f8
ff
e7
14
ff
ff
0f
02
fb
01
01
07
fb
12
15
09
f3
00
00
03
f1
03
ff
f5
e1
f7
ff
09
06
f6
1c
ff
fe
00
06
03
16
e9
04
06
fd
fe
00
fe
02
09
03
00
00
f3
fe
17
f2
fb
01
fa
ff
ff
fc
00
0b
fe
00
ff
f9
ff
fd
02
05
fe
00
02
fb
fa
02
02
01
fd
11
04
ef
02
08
fd
f0
01
ff
ff
f4
f6
02
0a
0d
fe
0c
ff
f6
06
fd
11
01
05
ee
03
e6
10
01
e5
0d
ee
d4
fe
02
04
02
01
04
03
0c
fe
0e
0e
08
0c
fe
08
01
ff
04
0f
03
04
f6
01
02
fc
19
0b
fd
01
10
04
05
fd
fd
01
11
11
fe
01
fb
fe
03
18
fa
00
f1
00
fa
1b
05
00
ec
22
00
01
0a
02
eb
05
f6
f8
00
27
0b
0b
1b
05
02
0a
0d
0c
fa
01
05
01
02
fd
fe
0c
10
02
fe
fe
fd
02
00
03
fa
ff
ff
06
ee
07
fd
05
02
00
03
ec
10
0a
18
ff
02
fb
0f
19
0b
fe
fb
0b
fa
f2
fc
f4
f9
04
ff
01
fd
fa
fe
fb
0e
f7
01
01
00
f7
15
02
00
05
12
fc
fe
0a
f5
fe
05
06
ff
fb
01
07
01
08
07
03
fe
00
ef
00
01
00
14
0b
fd
08
07
10
1c
05
03
0d
0e
00
05
00
04
f4
05
09
fc
fb
01
05
fc
02
03
01
0f
f9
0a
12
f7
ea
fe
03
fe
2b
00
e6
04
ff
ff
d7
05
09
f7
10
00
f8
fa
00
28
00
fb
fc
ff
ff
03
05
fd
02
fc
05
02
17
01
fe
0e
fe
f0
ff
03
fe
1c
03
ef
00
10
12
fd
0d
20
05
04
14
08
03
e9
f3
f9
1c
fd
0a
f9
1e
01
ef
04
e2
11
f5
ee
02
00
02
08
f3
eb
02
03
0d
07
1c
fb
f1
02
d5
00
e1
03
ec
fd
00
0c
01
02
06
ec
00
12
08
ff
fd
1b
fb
05
ff
04
f4
fe
01
13
00
fe
f7
11
00
f7
fa
00
06
03
fe
e0
04
01
00
1b
00
f3
fc
f9
e9
01
fa
f1
e8
e9
02
0d
0e
f3
09
ce
ff
02
00
01
01
ff
e5
09
e8
fe
02
ff
00
fc
02
0c
01
01
04
c2
00
03
fc
fd
06
04
c7
f0
09
fa
fe
01
ff
d8
f9
dd
fe
0b
0f
00
f6
12
f5
07
09
fe
ff
fd
1a
08
f5
02
0b
fc
fb
04
f8
27
02
fe
0b
0c
ff
fe
fd
fe
03
04
fc
01
fe
f4
ed
ff
ff
21
0e
ff
02
09
01
0a
fd
1f
ed
fb
fc
fe
03
0c
07
ff
f5
fe
fe
ff
e6
f6
0b
02
f5
ff
09
ec
fe
03
00
d8
04
01
19
e9
07
0f
ff
02
fd
ff
12
01
fe
19
f1
ff
1e
f6
fc
06
0e
fe
ed
05
ff
f2
fe
11
00
f5
00
05
f6
ff
fd
fe
fe
fb
04
01
fe
20
ff
fa
01
f1
ff
ef
ff
00
02
f2
f2
f1
f7
fc
0b
07
01
0a
01
11
17
06
0f
02
0f
05
10
07
f2
02
ef
05
0f
fc
ff
01
07
13
14
06
fc
0d
13
09
e1
03
e1
fe
17
03
14
00
09
02
ff
eb
f6
01
1c
f7
04
ee
08
fc
0a
ff
f4
e0
fd
15
f6
00
00
f8
ff
fe
04
0a
ff
18
00
01
db
f8
04
ff
f5
02
05
04
ff
fe
fe
f6
d9
fe
eb
03
f6
12
01
00
0c
f7
00
f2
02
0d
10
0b
fd
04
f9
0d
1f
fe
00
03
fc
02
08
fa
fb
fd
08
05
04
01
ee
fa
04
ff
ec
16
0a
12
fd
01
02
0b
15
0a
06
1b
0d
00
1f
1b
ed
09
17
01
05
ff
fb
04
fe
0d
02
03
01
fe
fe
16
ff
02
1b
0e
f0
ff
01
f0
17
f7
ff
fe
fd
14
03
0f
fd
27
02
03
ff
1b
01
09
02
0c
f9
02
0f
e6
04
07
04
02
2a
f3
fa
02
09
fc
04
04
0b
0c
ee
12
fa
ff
fc
e9
fb
f6
15
f7
1b
f9
fc
02
03
02
04
fd
09
ec
19
fe
f5
ec
04
fe
04
fe
ec
f5
01
ff
fe
ff
01
fe
03
ff
04
00
fe
02
fc
fd
15
00
00
f4
01
e6
fb
01
02
f4
fe
1c
01
e8
20
11
0a
fe
04
f6
12
ef
05
fc
f3
03
15
01
05
0e
01
f6
e5
02
1d
ff
ed
09
fe
fa
0f
0f
fe
fe
03
f6
07
dd
e2
ef
00
fd
03
ff
e7
00
f0
01
01
fc
f7
00
08
fe
fc
ec
fd
fd
02
0a
f5
00
04
eb
0a
00
00
fa
ff
00
0c
ee
00
0b
02
00
0d
f8
ff
04
06
00
04
f4
fd
1e
fb
00
f0
02
07
f3
f4
ff
fc
03
12
fd
f0
f6
fd
fd
00
fb
01
fe
0a
e2
f2
02
ff
fd
01
02
f9
ca
fb
fc
ec
09
15
01
d1
fe
fc
fe
15
00
e9
04
01
00
00
f5
ef
03
02
0a
ee
f5
e1
f0
f1
f8
19
02
00
00
fc
fa
01
07
e9
03
02
fe
ef
18
f4
01
f6
f0
f2
fe
ee
ff
0a
f2
01
fc
04
fb
04
fe
00
f6
ee
04
02
0c
01
e9
fe
02
fd
ff
11
0c
f4
08
02
01
0e
fe
01
fc
fd
28
00
ff
e8
f6
00
08
01
01
ff
17
04
19
f8
23
03
f8
e3
fe
00
fe
18
fd
f8
25
08
fc
ee
09
f6
f7
ec
02
01
fe
03
fd
00
12
00
06
02
01
ff
ff
03
fd
06
ff
0b
05
02
0f
00
13
ff
e6
fe
10
02
00
03
f5
13
06
fd
f9
0f
07
07
1c
03
ee
07
05
02
02
ed
e0
10
06
e8
04
02
07
fc
02
ff
fc
0a
19
e5
11
01
05
0d
0f
f7
12
ee
00
e0
fa
f6
01
f7
ff
fd
05
03
ff
16
fc
fd
03
01
13
ff
ff
1f
fb
06
08
11
03
02
f8
02
18
0e
19
fe
f3
fd
fc
07
04
fe
ed
0a
f9
00
f9
05
15
fd
f4
16
01
0e
00
c9
f1
fd
e4
03
0e
e9
f9
03
0b
08
05
00
00
09
09
fa
01
06
00
fd
05
04
f3
ff
02
02
e3
fc
02
05
fa
02
01
e7
12
f7
07
fd
00
fd
0f
e6
f1
00
d6
f7
0b
0b
02
ea
04
e3
01
fb
00
24
fe
16
ec
f7
00
03
00
fe
f7
ff
fe
01
fd
1e
fe
22
2c
ea
0a
01
02
02
01
04
14
02
03
f2
03
fe
ff
fe
f1
02
ff
fe
fe
fa
fd
03
21
01
fe
09
02
02
05
ef
fc
0c
02
e9
fe
05
e1
01
01
fc
0b
05
f4
e7
04
a5
04
01
fb
fd
fe
13
00
fd
a4
1a
01
fb
09
0e
04
0c
fa
fb
f2
02
fa
07
0b
fe
f9
fc
05
06
01
03
fa
fc
01
e3
01
00
11
03
f2
06
17
fe
f6
ff
14
ff
eb
0a
08
03
e1
05
fe
fd
fc
ff
fa
ea
fd
06
01
18
f6
eb
ab
0f
02
fc
02
e7
01
fe
03
0a
1c
07
07
00
0f
d6
fc
09
f7
0f
02
f8
fb
18
fe
fa
01
fc
fd
e5
00
18
06
fe
fc
fc
0d
01
18
14
10
04
f7
fb
fc
fe
ff
fd
fd
f4
e2
00
07
01
01
e9
01
fc
12
c8
05
fd
d4
fd
0c
f6
f8
02
fb
e0
f8
06
0f
ff
dd
03
f4
fc
ef
fd
fa
07
f7
fc
ff
19
ff
fc
ff
fc
04
fe
01
f7
d9
fe
02
13
0c
0e
ff
e8
03
f6
fe
f0
d2
f9
00
fb
01
fb
03
03
0b
03
f3
e7
0a
12
02
01
e1
f7
fd
fa
fc
eb
fc
f9
e0
eb
fc
f9
fc
e5
dc
1b
02
1f
f5
02
04
f4
ec
fd
1c
fb
01
fd
f0
ea
f6
03
f2
0f
ff
fe
0c
ff
11
02
e9
0f
fd
0c
f2
f8
e5
00
00
f6
f0
fe
01
02
fa
e4
fd
01
f2
15
15
02
01
01
de
fc
fc
14
fc
f9
03
f8
00
03
01
0f
fe
12
da
10
fe
0e
21
e5
09
0c
fd
08
01
03
d3
fd
fc
fe
0f
ff
06
0f
fd
ff
01
00
00
ef
02
01
fc
01
06
02
ec
ff
eb
03
05
fe
15
fa
04
14
05
09
0f
f3
0b
ff
02
f9
00
09
02
f7
f2
fb
f4
0a
ff
02
09
e0
01
04
02
ea
12
09
ff
00
0c
ee
12
02
fd
e6
04
f0
00
17
03
17
fd
02
fd
13
fb
06
17
fc
03
04
ff
00
08
0a
05
02
0f
20
01
fe
02
04
f8
e9
11
02
fd
fe
01
03
02
03
f8
f2
03
04
fb
fb
18
02
cf
05
01
11
ed
f0
1b
02
ec
e4
0c
ff
f3
01
d1
e9
01
02
00
ed
1d
06
01
ff
01
fd
fe
00
fe
fb
ff
04
06
fb
03
0f
01
ff
03
fd
e9
06
05
02
fc
00
20
03
06
02
1e
fc
12
fd
00
12
f7
06
03
fc
01
09
0c
09
f4
03
ff
fe
05
f5
0c
06
02
16
05
10
02
fa
c8
05
09
fb
fb
06
14
1a
f6
fd
f8
05
ff
00
2c
fe
f6
ff
f5
f8
fc
0a
02
02
e8
fd
fe
d7
03
fd
05
02
fe
e7
07
10
0a
16
05
fd
02
03
0c
03
fc
08
01
fd
fa
07
00
00
00
f7
01
ec
f1
01
00
12
de
dd
03
b8
ff
df
0b
fe
0d
00
e1
fe
05
05
fd
da
fc
fc
03
00
ff
ff
03
03
f4
02
02
fe
f6
fd
01
00
04
fb
e5
fe
03
07
0d
01
0d
19
f8
00
ff
0a
02
0b
00
05
f8
fd
eb
0b
fc
f6
fd
12
0f
03
02
f6
19
06
15
00
09
0c
09
09
f8
11
01
fa
fc
1f
01
0c
01
00
0a
0d
01
f0
09
06
f0
fc
f7
01
d9
f1
f2
fe
06
da
fc
00
01
00
fe
18
f0
00
f4
fd
02
fd
02
ff
db
05
fc
01
f3
01
12
01
12
f3
00
06
06
f4
05
01
06
19
01
04
02
00
15
03
01
03
02
ec
eb
07
00
00
fe
01
04
0a
f6
05
00
02
ef
0d
02
04
00
ff
02
ef
08
08
f4
04
05
fe
09
e4
1b
00
06
d3
f9
0c
e4
c5
e8
07
fd
00
ff
01
f7
fe
fe
07
00
fd
00
e7
1e
00
03
f6
de
12
00
df
c7
f2
10
01
f8
01
07
da
12
ff
06
cf
00
00
ee
02
0c
fe
fd
11
fe
ec
01
01
05
02
fb
f0
0b
fe
01
10
f1
df
03
fc
00
06
f1
00
07
01
11
fd
0d
be
d7
f9
05
ef
fc
fe
fe
07
fc
f6
0f
11
04
fd
e1
f3
ff
09
00
f2
0d
03
ee
06
cd
00
13
01
03
07
ff
fd
02
fe
00
04
00
02
04
ff
1a
ff
09
01
09
ff
f1
f9
0f
f4
cf
14
fb
02
02
07
fc
01
04
0b
00
02
ff
03
fc
11
e0
05
01
f1
06
fa
ea
fe
03
ff
16
ea
f9
00
f9
07
08
e4
fb
04
ff
fd
00
fd
ff
ff
01
03
e1
0e
04
0b
07
00
03
07
d7
07
ef
11
1f
00
12
f7
00
01
f6
00
0d
13
eb
00
fa
00
fd
07
07
00
02
f7
03
01
0f
fe
ff
fc
f4
00
01
29
e5
ff
03
01
0a
0c
14
12
2f
fd
2b
01
f8
05
06
29
07
09
03
fb
05
fc
01
fd
ff
00
01
09
1b
12
03
10
03
fa
fb
07
1a
05
1c
00
01
fe
0c
28
fa
ff
ee
13
13
f9
13
0d
d8
02
ff
04
fe
01
01
f9
f2
03
01
00
fe
e3
19
eb
ff
f4
19
ef
02
06
09
16
fc
f9
ff
02
f9
2c
14
01
06
0e
02
02
04
00
fa
fe
1c
28
00
0c
fc
02
0f
02
02
fa
ea
00
00
f1
14
0f
01
f9
0a
10
dd
07
02
04
f9
06
f2
0b
fb
19
05
f6
01
fc
ff
da
01
04
13
14
fd
de
fe
05
f4
f7
ff
16
0b
fe
db
ff
10
ff
00
fc
01
09
00
06
01
00
fd
15
02
01
fe
fc
1a
f9
0b
00
1d
00
fc
fe
02
f7
03
0c
15
09
01
fd
09
fe
0a
05
fa
10
02
0c
f8
06
f9
e8
00
f9
f8
e5
fc
fe
00
f6
f0
e7
06
02
fe
0a
04
1d
0e
f7
00
12
ff
02
02
0c
fd
ff
0b
f6
02
11
e8
fc
f0
00
02
fd
0f
1b
e7
05
fa
ee
00
03
05
02
2a
ea
00
01
1e
00
ff
0a
05
03
e5
ee
fe
00
f1
ff
1a
fd
08
ed
01
f5
fc
f4
dc
fc
f5
ed
fc
0e
05
0a
dd
0d
04
02
ff
fd
01
f6
ff
fd
fc
02
fd
08
15
fe
fe
10
03
fa
01
05
01
01
fe
f0
0a
fe
0a
fe
03
ff
cc
04
e1
00
dc
fd
f1
0a
1e
f3
07
ff
06
03
02
06
03
fd
03
03
00
00
ff
17
10
1b
ff
1c
05
0a
02
0a
ec
dc
e6
01
ff
05
f7
07
ff
00
0c
f0
fe
fe
f3
fe
08
01
0b
ef
fc
f4
f2
05
09
01
01
ee
f2
02
ff
09
ef
fd
02
de
09
f6
f4
01
ff
03
19
05
f5
03
14
f9
07
03
ff
01
fe
f8
05
f5
01
04
01
15
fa
27
03
f9
fd
06
03
fc
11
ff
01
04
ed
fd
fe
fe
00
fd
fa
01
00
0f
04
00
02
02
0e
02
f2
03
ff
00
f3
01
0e
d9
e9
ed
fc
01
f8
f8
05
02
00
0b
07
0b
fb
f9
fb
19
fb
09
02
f6
10
14
09
00
ff
ff
de
0a
f7
ff
08
fd
fa
e1
f9
0d
00
e8
02
0d
fe
f1
03
fe
fb
fe
fe
f6
ef
ff
13
00
11
07
f1
0f
01
01
e4
0b
00
ff
18
02
fa
ef
ea
01
e1
fe
01
fd
04
06
0b
fb
04
03
09
fe
e5
fc
f9
14
01
f6
0c
ff
f5
00
0b
15
f3
fc
16
00
1d
0e
fd
00
00
03
0f
ff
03
02
00
01
00
f9
f5
ff
03
e3
0f
e2
01
1d
01
05
fc
fe
f0
0d
17
01
03
ff
fc
03
fd
04
0b
f3
0a
03
24
f7
f4
0f
01
02
02
05
11
03
0e
f7
01
02
03
06
f7
f8
ff
fe
11
2f
ff
f6
ec
f9
f1
fd
02
01
11
e8
f7
fe
0f
16
fe
fb
fa
00
ef
00
06
f3
fc
01
f8
f9
fa
ff
02
ff
ee
fe
03
f9
06
fc
00
05
00
e7
ff
06
ff
04
08
01
ec
0f
f9
03
02
fb
02
ff
fe
04
00
f3
1d
12
01
ea
05
14
02
06
00
03
05
01
00
fd
e0
02
fc
fe
03
08
02
02
01
00
00
14
01
ff
e7
03
e9
fe
05
05
f1
fd
12
ff
0c
f4
08
0e
06
ef
f9
f5
12
fa
08
15
00
07
00
02
0e
21
08
fa
03
05
14
dc
f7
01
01
f4
09
cd
12
02
0f
13
0b
f3
07
18
05
ee
00
05
02
06
00
fd
fa
02
03
0e
e1
0f
f9
fe
09
02
e7
e5
08
01
fb
13
01
ff
f0
ff
ee
17
ee
00
fb
03
ff
01
03
fe
e7
fc
01
01
2c
00
02
01
10
0a
f9
0f
12
13
e7
02
f7
ed
fd
2b
0f
fe
0a
08
03
fd
fe
0d
ec
fe
f9
03
04
fa
fe
06
1a
fe
01
06
ee
e4
00
0b
fe
00
01
eb
0f
f6
f9
02
07
04
1c
0a
0f
01
0e
20
ea
e1
fc
ef
fd
11
00
01
00
f9
05
0a
0d
0c
fe
fe
01
f5
d9
0c
04
31
fa
f6
fb
fe
1b
05
02
fd
fe
fd
f4
ea
e7
01
be
ec
01
fd
f1
fe
c0
fd
12
05
ff
17
08
0b
08
01
fd
fa
fa
01
fd
f9
0c
e8
00
08
00
00
00
ff
01
ff
00
fb
00
00
01
fc
02
fc
03
fd
fd
ff
00
04
fc
ff
01
fc
fc
fa
01
ff
01
04
ff
ff
00
02
00
02
fe
03
01
fb
fe
fe
04
ff
fe
fe
00
01
01
fb
fb
ff
01
fe
fe
fc
fe
00
ff
02
fd
fe
fc
00
00
fe
00
fa
fd
fc
06
01
03
fe
fc
ff
ff
fd
02
00
01
04
fe
02
ff
01
04
04
fb
00
ff
04
fd
fc
00
fd
fe
ff
ff
00
03
00
00
02
ff
ff
fc
fd
00
01
00
fe
01
01
fa
ff
fe
01
02
fd
fd
fc
fe
07
fe
fe
ff
00
fc
00
fe
00
ff
01
fb
fc
03
01
fe
03
fd
fe
fe
ff
fd
03
01
ff
00
02
00
01
04
03
00
01
ff
ff
fd
01
fc
03
01
00
fe
02
04
fc
03
fe
01
ff
01
01
fd
fd
02
00
00
fd
00
fd
03
01
fb
fd
00
02
01
00
00
fd
fd
f9
03
ff
ff
f9
fc
f8
fb
fd
fe
ff
fd
fc
fb
fd
00
fe
fe
fc
fe
fe
02
fd
fb
ff
00
00
ff
03
fb
00
01
fe
fc
01
ff
02
03
00
01
ff
02
00
01
fe
01
06
03
02
fd
ff
02
04
fe
00
fd
fe
03
03
fc
fd
ff
fb
ff
01
03
03
02
02
01
fe
ff
f7
0c
05
0b
01
fd
00
fe
13
ff
e4
1c
0d
fe
f0
ef
06
fe
06
02
c1
01
02
f7
01
03
01
f7
04
03
e5
fd
ff
04
02
00
fc
ff
fd
f6
fe
f3
fb
fc
03
03
02
df
01
ef
fe
e8
f7
dd
01
03
02
0e
fe
f2
08
02
02
02
1a
08
0b
fb
ff
ff
13
fa
d4
f6
ff
01
13
fa
14
ed
04
03
f8
06
15
0d
03
ff
de
03
f8
ff
08
04
ff
02
10
00
0e
00
01
0b
00
ed
03
13
03
06
01
09
da
05
02
0c
00
f2
0d
0f
00
02
fd
00
ff
fc
01
e3
09
02
ff
f4
01
f6
02
0c
ed
fb
0b
08
0e
e6
05
02
06
fb
03
e8
01
08
04
fe
02
00
f4
fc
05
03
01
01
ff
02
fd
fa
02
fd
07
f5
ff
fb
03
ff
ff
fd
ef
fc
fe
01
fe
00
ff
0c
0b
04
fc
01
00
02
d4
13
f4
f5
0f
05
fc
01
ed
04
f2
f1
f4
fe
01
02
ea
fc
e4
00
e5
fc
1f
00
05
0d
0b
1b
00
fd
ff
03
0f
e8
fc
d3
0e
01
00
ef
03
0c
03
eb
02
ff
04
09
12
02
fe
fd
11
ea
01
00
f8
fc
ff
f8
e3
f8
