08
05
01
00
09
07
01
01
fa
07
0a
02
03
05
00
01
00
02
03
00
ff
02
00
03
01
03
06
00
fb
fc
01
03
00
02
00
03
07
00
03
01
01
01
07
fc
07
00
01
02
fe
05
fe
05
00
08
06
03
03
02
02
ff
02
00
fe
04
07
04
05
fc
01
fc
fc
0b
05
03
06
00
01
01
03
03
fd
00
02
0e
01
fc
06
fe
04
00
ff
06
02
00
02
fe
07
fd
ff
08
06
09
04
02
02
05
01
00
08
06
02
03
00
fe
ff
ff
00
f8
ff
00
02
02
04
03
00
ff
07
05
03
05
01
00
03
ff
03
06
02
fc
02
01
03
07
fe
00
00
fe
00
06
02
00
ff
0c
01
08
01
04
fc
05
01
04
01
01
07
fd
0b
ff
02
06
03
06
03
06
07
06
05
06
0b
02
00
02
ff
04
02
fd
02
01
04
06
04
05
00
fe
01
01
01
01
ff
fe
ff
fd
03
04
01
03
fe
06
02
00
ff
07
00
fe
02
0f
04
04
ff
00
05
02
ff
01
00
03
05
05
03
07
ff
06
fe
04
fb
ff
ff
00
01
07
03
ff
00
ff
00
00
02
03
04
07
0b
02
04
01
05
06
fe
05
fb
fd
ff
03
0a
fc
03
ff
03
fd
00
02
02
02
03
ff
04
06
fe
fc
02
06
05
ff
04
07
02
02
09
fd
02
fd
fe
fe
00
01
04
02
04
00
04
ff
01
03
c7
a3
fc
00
e9
e6
00
0b
fb
fe
ff
00
f5
de
ed
01
05
fd
fa
fb
f3
fd
fb
cf
00
e6
03
f0
02
00
fe
ff
ff
03
fc
06
f9
fd
fd
01
f4
e5
00
01
f8
00
ec
07
00
d7
f9
db
de
f9
14
fb
00
f8
fb
e8
ed
06
03
ef
e7
e9
fb
03
07
03
ff
ef
08
e8
e2
01
0e
02
04
13
01
cf
01
12
eb
06
02
03
f0
00
04
07
f2
03
f7
fd
fd
00
08
d4
f4
1b
f2
01
f0
01
e1
06
f5
04
fc
01
04
fb
0e
01
02
fd
01
02
0a
09
ee
fd
df
fd
e5
14
10
0a
ff
03
00
dc
02
f5
fb
fc
c5
00
ee
07
02
fb
01
03
ff
06
01
02
04
f5
02
f9
f3
dd
fd
ef
fd
08
fb
01
02
32
fb
fd
06
00
08
02
f0
fd
fe
04
03
0f
fe
ff
fa
07
fe
ea
f7
01
eb
03
0c
d8
01
09
01
fd
03
0d
fd
06
03
ff
eb
01
fd
fe
11
0c
09
02
fa
fd
07
fc
01
04
2b
ee
0f
06
01
04
16
10
00
fc
fe
f9
e7
0f
ff
05
04
13
02
01
fb
e0
f0
04
05
f8
0a
09
09
04
f8
fe
ff
09
1a
01
07
02
ef
0e
02
ea
ff
0f
fe
02
02
ed
ba
01
f7
00
0d
01
fd
0b
fb
32
1e
04
02
ee
f3
00
ff
04
f9
01
f5
f5
09
19
16
00
ec
01
05
00
fd
ff
ff
06
07
10
f8
03
f5
13
fe
ff
ff
ff
ff
00
01
ff
ff
02
fe
ff
ff
00
01
00
00
fe
02
ff
02
00
fe
fe
01
fe
00
01
01
fe
00
ff
00
fe
02
03
00
00
ff
ff
00
00
01
ff
00
02
01
02
fe
00
fd
00
02
02
01
ff
00
00
03
01
ff
02
fe
ff
01
01
03
00
ff
00
01
fe
02
ff
ff
ff
00
00
03
00
01
00
ff
ff
00
ff
02
ff
ff
ff
00
ff
00
01
fe
00
01
fe
00
01
ff
00
01
fe
00
01
00
00
01
ff
00
01
00
00
00
01
ff
ff
ff
02
ff
01
ff
ff
01
00
fe
00
01
02
00
ff
00
ff
fe
ff
00
01
ff
01
ff
00
00
03
ff
00
fe
ff
00
00
00
00
00
00
00
00
01
00
ff
01
ff
fe
ff
ff
ff
ff
03
01
fe
01
fe
ff
02
00
01
fe
ff
03
ff
00
00
ff
01
02
00
ff
01
00
03
01
00
00
00
00
03
02
00
00
ff
00
01
01
01
01
ff
00
00
00
02
00
00
00
02
ff
00
00
01
ff
00
ff
ff
03
ff
00
ff
01
00
00
ff
00
ff
ff
01
ff
fe
00
01
01
00
ff
00
ff
00
fd
00
00
00
02
00
02
ff
00
fe
ff
00
ff
fe
ff
00
01
ff
00
00
00
ff
00
ff
01
01
ff
00
ff
01
ff
02
ff
ff
00
01
01
00
ff
fe
ff
00
ff
ff
ff
00
fe
00
01
00
00
00
ff
00
ff
00
01
01
00
00
01
00
01
ff
00
01
01
01
00
00
01
ff
00
00
01
01
ff
00
ff
00
01
00
00
00
00
00
ff
00
00
01
00
00
01
00
00
00
00
00
00
00
01
00
00
00
00
01
00
00
00
00
ff
01
00
00
ff
00
ff
01
00
00
00
00
00
00
00
00
ff
01
ff
ff
ff
00
ff
00
00
00
00
00
00
00
01
00
00
00
00
00
00
ff
ff
00
ff
00
00
00
00
ff
01
01
01
00
ff
00
ff
00
01
00
00
00
00
ff
00
00
00
00
00
ff
00
ff
00
ff
00
01
01
00
ff
00
00
01
01
00
00
01
ff
ff
fe
00
ff
ff
01
00
00
02
ff
ff
01
00
00
01
00
00
ff
00
ff
ff
00
ff
00
00
00
00
ff
00
00
ff
00
ff
00
01
00
00
00
00
01
01
00
00
00
01
00
01
00
01
01
01
ff
00
ff
ff
ff
00
00
00
01
00
01
00
ff
ff
00
ff
ff
00
00
00
00
01
ff
00
00
00
00
ff
ff
00
01
ff
00
01
00
00
00
01
00
00
ff
00
00
00
00
01
00
ff
00
00
00
00
01
ff
00
00
01
00
ff
00
00
01
01
ff
00
ff
01
00
00
00
00
00
00
ff
ff
fe
00
01
ff
00
00
00
01
00
01
01
01
00
00
ff
00
01
00
01
00
00
ff
00
00
ff
01
00
00
00
00
ff
00
00
00
ff
ff
01
01
ff
00
01
00
01
ff
00
01
ff
00
00
ff
00
00
00
01
00
00
ff
00
ff
ff
ff
01
00
fe
01
ff
00
00
ff
00
01
00
00
00
00
ff
ff
00
00
00
00
ff
00
ff
00
00
00
00
00
00
00
01
00
ff
01
ff
00
ff
ff
01
00
00
ff
ff
ff
ff
00
01
00
00
00
ff
01
ff
00
00
ff
01
ff
00
ff
01
ff
00
00
ff
00
01
ff
ff
00
ff
ff
01
01
00
ff
00
00
01
ff
00
00
00
ff
00
00
00
00
00
00
00
00
00
ff
00
00
00
00
00
00
ff
00
01
fe
00
ff
00
01
00
ff
00
01
01
00
00
01
00
00
01
01
ff
00
ff
ff
00
00
00
00
01
ff
00
00
ff
00
00
00
01
00
00
ff
00
01
ff
00
00
00
00
ff
01
00
00
ff
00
ff
ff
00
ff
00
00
00
ff
01
00
00
00
00
01
00
ff
00
ff
00
01
ff
00
00
00
01
00
01
00
ff
ff
00
00
00
00
ff
00
00
00
01
00
00
00
00
00
00
00
00
ff
00
ff
01
01
ff
ff
00
00
00
00
00
00
00
ff
00
00
01
ff
ff
00
00
01
fe
00
ff
00
00
01
ff
ff
00
ff
ff
00
00
00
01
01
00
ff
01
00
ff
01
00
01
00
01
ff
00
00
ff
00
01
00
00
ff
ff
00
00
02
00
00
00
00
ff
00
00
00
00
00
00
00
01
ff
00
14
02
fe
04
13
19
fe
00
ff
fa
1f
02
0d
04
fd
f8
03
01
f4
ff
05
02
09
0a
04
0d
05
09
fe
02
fe
10
fa
ff
04
00
fe
02
fb
05
05
0c
fc
0a
0c
00
f7
f2
01
f7
f9
00
15
fd
08
fb
fa
16
00
05
00
fd
03
09
f8
fb
02
fe
f9
fc
fe
f4
fb
08
06
05
15
f7
07
f6
ff
13
01
fd
fe
02
f9
03
f7
04
08
ff
ff
fe
00
fa
fc
03
07
f6
05
03
ff
00
f9
fe
0f
ff
03
07
fd
05
02
fe
fb
ff
fd
fd
fd
fe
08
08
fe
f6
11
04
f6
02
f6
fc
01
fa
fe
f9
03
02
00
fe
f8
02
fa
ff
01
fe
fc
ff
02
00
00
fd
ff
04
03
1c
00
fd
ff
f9
00
01
03
fe
06
fb
02
ff
06
fd
f4
02
05
0b
03
fe
12
fb
f6
fd
00
ef
02
fc
fc
fd
08
fc
08
f3
03
0b
fe
fe
f3
fc
02
04
01
01
02
08
f9
04
0e
fc
fd
fb
06
02
03
00
ff
01
f1
f6
f5
fe
fd
fc
05
01
fd
03
fd
ff
f5
11
f4
f5
f6
f8
fc
f8
06
f3
02
fd
fc
17
01
fd
05
02
f9
02
03
fe
fe
10
14
01
04
03
fe
19
02
fd
07
fe
05
fc
06
fe
f2
01
f1
00
fc
0b
f4
fe
13
f0
fe
f9
19
fc
01
0d
01
02
0f
f6
00
fb
f8
02
f4
fe
03
01
fe
04
ef
06
04
ef
f1
01
fa
0b
fd
fa
ff
02
fa
fc
fe
02
01
ff
fc
fe
00
ff
03
01
00
00
00
00
01
fe
01
02
01
00
03
00
fb
01
fe
fb
04
01
00
ff
02
ff
fd
fd
00
00
fe
00
01
ff
ff
00
ff
ff
00
00
fb
ff
fb
ff
fe
01
01
fe
01
fb
fe
ff
01
00
01
00
ff
00
00
01
00
ff
fb
00
00
01
00
01
00
fb
00
00
02
ff
fd
00
01
ff
ff
00
01
ff
fe
00
ff
00
00
01
fe
fe
fc
00
02
01
fc
01
00
00
04
ff
ff
ff
07
00
00
01
00
fd
05
01
03
01
fd
03
fe
01
fa
fe
fe
01
fe
02
00
03
00
ff
02
ff
02
fe
00
ff
04
05
ff
ff
01
00
00
03
00
fd
fe
ff
02
02
00
fd
00
fe
01
01
ff
ff
ff
00
00
fe
03
00
00
fb
ff
ff
fc
00
ff
fe
ff
ff
01
00
01
ff
00
ff
ff
02
00
ff
fe
03
fe
ff
ff
fe
00
01
03
fd
fd
fc
fe
ff
01
01
00
00
00
fe
ff
ff
00
00
01
00
00
fd
ff
00
ff
ff
ff
ff
04
fd
04
fd
00
fc
02
00
00
ff
ff
fb
ff
02
04
02
fe
ff
ff
02
ff
fe
fd
ff
00
fd
00
fe
00
fb
01
ff
00
04
00
ff
00
00
fa
04
00
00
05
fb
fd
02
00
04
ff
00
01
fd
fd
00
fe
04
00
fd
ff
02
02
00
00
ff
ff
00
04
ff
00
00
fb
ff
ff
ff
07
f9
03
01
f7
ff
01
fa
fe
fc
07
03
f1
fa
ff
03
03
02
fa
02
fd
06
01
f6
ff
03
01
ff
01
07
02
02
f3
02
00
fa
fe
05
f4
03
fc
0d
fa
01
01
00
0a
fc
05
05
07
f6
fa
f9
03
fc
fd
fc
08
13
01
fb
ff
01
ff
00
04
01
02
fe
01
14
ff
f7
04
08
06
f9
05
ef
00
ff
01
08
fa
06
fc
00
0a
06
03
03
fd
01
0d
fd
fb
01
fc
11
f7
0b
04
03
f8
fa
16
fe
f9
0e
01
fe
ff
01
12
05
ff
f9
fd
fe
04
07
fe
ec
16
10
f3
0d
fb
ef
00
0a
f2
f2
05
fb
02
fe
e8
02
f2
05
fe
03
04
03
00
f3
ff
00
fc
0b
00
02
0d
07
fe
f4
01
00
00
02
0a
0a
16
ff
06
f2
fa
04
00
fe
04
fc
03
02
08
03
fe
f8
03
fc
fe
ff
f5
01
04
07
03
fa
06
01
f8
06
03
01
00
fe
f2
06
f7
00
ff
f8
05
f6
fe
03
02
fe
02
fa
f4
19
f7
fb
fc
fd
f5
03
01
ff
ff
00
0d
02
f7
03
02
fd
fe
fd
03
03
11
fe
ff
fa
fc
04
07
02
f4
fd
00
f5
07
00
00
fd
0c
f3
ff
fe
f9
07
ff
01
05
f9
0d
03
0d
fb
f5
05
fe
f6
fd
09
f9
06
03
fa
f6
fe
fe
00
f4
00
00
f8
fc
f6
f2
03
fe
ff
01
ff
fe
fc
fa
06
04
02
fa
fd
f7
ff
2d
1d
fd
03
0e
1f
00
fb
02
1a
20
00
03
0b
fe
f7
0c
02
02
fe
12
02
e9
0f
00
0b
f9
05
00
02
06
14
02
ff
fd
f0
fb
06
0d
00
07
f5
1c
fb
0d
01
0f
f5
ff
05
e4
05
22
15
fe
fe
08
ff
08
eb
fd
f4
fe
fb
f9
08
00
ff
0f
00
08
02
ef
0e
19
f9
e8
ff
ea
00
ff
2a
fd
10
07
fd
01
ff
09
fe
fe
fe
fe
00
e6
00
13
01
f3
07
09
f4
04
fe
f3
f7
ef
fe
0a
00
03
f1
fd
06
f6
05
01
01
fd
0b
eb
ef
ff
f6
f1
07
f6
f8
01
f5
04
02
fb
00
fe
07
fe
06
f7
fd
f5
00
00
02
ec
db
fd
00
fe
02
ff
fb
fd
34
e2
f7
00
fd
00
ee
01
fe
f7
ea
1a
fe
02
03
02
00
07
0c
f6
f9
f8
fa
f5
fb
04
fa
02
fc
00
00
f9
02
e0
08
f6
c6
03
04
04
e0
fb
f9
02
fe
05
00
f9
f2
d7
01
ff
00
f4
05
05
f5
00
00
e7
0a
f9
f0
ff
01
f0
ee
02
fb
02
f6
06
ec
f9
0d
e6
05
04
12
ff
09
f8
01
fe
ee
fc
fe
de
eb
ff
05
ff
fd
d0
ef
31
05
f7
df
f6
2a
ff
05
fd
00
eb
00
1d
fc
f4
01
fd
e1
03
cc
fd
03
e4
08
01
fd
07
ff
03
dc
03
05
fe
f6
02
f8
f8
e6
f2
fe
ed
ff
01
f5
fc
f6
de
f3
04
00
fe
f1
17
09
00
fe
04
19
fd
08
03
05
0c
04
11
08
fe
fa
f2
02
03
fd
0b
fd
ff
05
ff
1c
06
00
fb
ff
02
03
06
fe
fb
fb
00
ff
fb
03
04
f3
01
f8
fb
ff
03
f6
07
fc
fb
f6
fb
ff
f4
fe
f9
14
fc
f2
f9
01
ff
f7
fd
fb
05
ff
fe
00
02
f8
f9
04
11
02
df
fc
03
04
06
05
01
00
fe
03
07
07
ff
06
02
08
f3
ff
fa
fe
03
01
f8
fb
13
e7
fe
00
f2
f6
f2
fc
06
e2
07
fe
06
02
ea
fc
fd
fe
01
ef
12
b9
02
01
ec
fc
f8
d8
e5
ee
00
0f
00
0b
fa
02
fe
fb
fa
00
f2
fa
02
01
06
fb
02
fd
02
04
ff
fc
ff
f6
ee
f6
fc
f9
01
f4
fe
fd
03
cf
fa
00
f4
f9
f8
03
fc
03
00
ed
0c
c7
e0
08
ff
f9
ff
fe
01
fe
f7
ff
02
fc
05
f5
02
01
f9
f3
01
f8
ff
ff
02
ff
09
e7
03
f1
f2
09
0a
fa
03
19
fb
05
ef
fe
fd
fe
fd
00
ef
fd
02
fe
00
fb
f5
0c
08
ff
06
ce
f9
f4
05
f7
06
01
fd
f0
f9
05
03
13
f3
07
02
fc
e6
df
ee
f6
01
c0
fb
11
02
e0
fc
fd
fb
05
31
00
fe
02
f5
f5
03
e4
06
c8
ea
fb
05
ff
14
fe
02
e7
ee
02
04
01
ef
ed
fa
f9
ff
01
0e
01
01
f8
0b
cc
d4
e9
f2
00
f5
e0
df
e2
ff
05
ea
ea
01
06
fb
f6
f3
01
f3
e5
e7
fe
fd
fd
f2
fe
f3
00
0d
dd
00
dd
08
ef
ff
06
00
d1
f8
06
f1
04
f3
00
d2
fb
ec
fe
00
06
ff
00
01
02
03
f3
09
e5
df
f4
e7
03
e4
ef
fb
01
ec
fd
01
05
e8
f9
ff
00
fe
00
03
fd
02
e8
14
ff
f4
00
fe
f5
01
cd
02
fa
ea
fe
fa
fd
05
01
fa
00
f0
00
07
01
f4
fc
f1
df
0f
0d
00
02
e8
0c
fe
0a
03
0e
ff
fc
fa
fe
f6
01
ff
ff
02
f0
f8
ff
02
e6
fe
fd
05
fd
ea
f8
01
f7
02
de
05
09
04
f7
de
fe
eb
fa
03
f9
f3
fa
04
f4
03
ff
05
ed
fc
eb
05
00
01
e6
03
09
ef
fc
fe
ff
f6
fd
0f
fd
f2
f6
16
03
01
e3
fb
f6
ef
f3
fe
04
02
fa
f4
02
e3
00
01
f2
f5
03
fb
fe
de
f8
ea
fa
fd
fc
f4
00
08
ef
00
df
fc
fa
ed
01
f0
ec
00
00
f2
f7
ea
02
00
00
f8
01
fb
07
00
ee
ec
fa
e7
02
ff
04
ff
e5
ff
f5
03
ff
05
fb
ff
ff
f3
01
f0
ff
01
03
12
ff
ef
f7
06
ee
fc
e4
ff
e1
01
ff
07
f8
11
fa
f6
fe
dd
fe
01
02
f6
0a
09
04
00
f7
ef
fd
00
fe
f6
ff
ed
f4
e7
0c
ea
04
e0
03
08
fc
00
08
fa
fe
f1
20
e0
ff
ee
04
02
03
01
ff
03
03
00
fe
01
01
03
ff
02
05
01
ff
fe
01
02
00
00
ff
01
02
00
03
fe
03
01
ff
02
03
01
00
00
ff
00
ff
02
ff
03
00
fe
00
ff
00
02
ff
00
03
04
03
01
ff
02
00
03
03
00
02
02
fe
00
04
04
02
00
00
fe
00
ff
04
fd
03
02
00
00
01
fe
04
ff
02
fe
02
03
01
fd
00
03
00
00
fe
04
ff
02
ff
00
00
02
06
01
03
ff
fe
02
fd
00
fd
fc
02
fd
04
00
00
02
00
01
01
ff
01
02
ff
01
03
ff
fe
04
02
03
01
00
fd
01
04
00
00
00
01
03
01
03
fc
00
01
02
03
ff
01
fe
00
00
fe
ff
03
02
05
00
03
fe
01
02
01
fe
00
03
00
ff
fd
01
02
00
ff
ff
05
00
02
04
01
ff
fd
ff
03
01
00
03
00
01
03
00
02
01
00
05
01
ff
00
01
00
03
00
03
03
02
02
fe
fe
02
ff
00
05
00
01
03
04
03
fd
ff
00
01
fe
fe
fe
00
03
04
04
02
fe
03
03
01
03
00
03
00
00
ff
ff
01
01
02
02
04
00
fe
fe
03
02
03
02
02
02
fc
03
ff
02
01
00
02
02
00
02
02
00
02
04
00
02
01
03
00
ff
02
01
02
00
00
02
fe
ff
03
03
ff
00
04
03
04
02
01
00
00
00
03
ff
01
01
04
00
03
01
cb
cf
f4
fa
d8
f4
fc
fa
03
fa
d7
02
f7
f1
05
0a
11
f4
02
03
00
03
ff
fd
05
f8
08
f5
fb
00
00
e8
0b
fc
03
08
05
05
eb
ff
fc
03
f9
02
f1
00
f7
ff
02
ee
f4
ec
d5
fa
fa
fd
07
fb
fa
04
02
01
01
00
03
fd
01
02
fa
03
03
f0
ff
ee
f8
04
17
01
02
06
01
ce
01
f8
06
00
05
00
ff
fe
00
ff
f4
00
fa
ff
fd
03
01
f3
f7
ee
00
fe
05
07
00
05
fa
04
01
01
fe
03
05
fb
01
03
02
08
10
fc
05
ff
fd
02
f6
00
08
07
00
f7
fc
fd
00
06
02
01
09
00
11
03
03
fe
0c
0e
00
06
01
03
ff
01
04
d7
fb
10
00
05
fe
04
06
ff
fe
0c
f5
03
04
fd
0a
fe
0c
f9
03
f6
0d
14
f5
01
01
02
00
ff
07
01
0b
02
ff
f6
03
11
fb
fd
0b
0f
01
02
01
00
f6
fd
f2
0d
0f
0e
02
fc
07
ff
03
06
fd
ff
22
fb
17
06
02
00
16
08
03
04
ff
07
fc
0f
f7
fe
0d
05
03
fe
04
08
f0
03
0b
02
00
05
12
07
10
ff
fd
fb
0f
fb
e8
03
0d
12
01
e1
01
05
fe
02
fe
0d
04
04
fd
fd
12
08
03
13
03
0a
02
fe
03
07
08
02
fe
01
03
01
f9
0a
07
15
0e
04
0b
fb
01
02
01
15
ff
fb
ff
0e
05
fd
09
05
00
00
00
00
01
ff
ff
ff
01
fe
00
ff
ff
ff
ff
ff
00
00
00
00
ff
00
ff
00
ff
01
ff
00
00
00
ff
01
ff
fe
01
ff
01
00
01
00
ff
ff
ff
01
00
00
00
00
00
00
01
01
fe
ff
00
00
00
01
ff
00
00
00
00
00
00
ff
ff
01
ff
ff
00
00
00
00
00
01
01
ff
ff
00
00
00
00
00
00
ff
ff
01
ff
ff
00
00
01
00
01
00
00
ff
ff
02
00
fe
00
00
00
00
00
00
01
00
01
00
00
ff
ff
01
01
ff
ff
00
01
ff
00
00
01
00
01
ff
00
00
00
ff
00
00
00
00
ff
ff
01
00
00
ff
fe
ff
00
00
00
00
00
00
00
ff
ff
00
00
00
00
ff
00
00
00
00
00
00
00
ff
00
ff
01
ff
01
ff
00
01
01
00
00
00
00
00
ff
00
00
ff
01
ff
01
00
01
00
00
ff
01
ff
00
ff
00
00
02
01
ff
00
00
01
02
01
00
ff
00
01
ff
ff
00
00
01
00
ff
00
ff
ff
00
ff
00
01
01
00
00
00
00
00
ff
00
01
00
00
00
ff
01
ff
ff
00
00
00
00
00
00
00
01
ff
00
00
ff
00
00
00
01
ff
00
00
00
01
ff
00
ff
ff
00
00
00
00
01
ff
ff
01
fe
00
ff
ff
00
00
00
00
00
01
02
01
00
ff
ff
01
01
01
00
00
01
00
01
02
01
00
fe
01
00
00
01
02
ff
00
00
00
00
00
00
00
fe
00
00
00
00
00
01
ff
00
00
00
00
ff
01
00
ff
00
ff
01
00
00
00
00
01
00
00
00
01
00
00
00
00
00
01
00
00
00
01
00
00
ff
00
fe
01
00
00
00
01
00
ff
fe
00
00
00
ff
00
01
ff
ff
00
01
ff
ff
00
01
00
ff
00
01
01
00
01
01
00
ff
00
00
00
ff
00
ff
00
00
00
ff
01
01
00
01
ff
00
00
ff
00
00
00
00
00
00
00
ff
00
00
00
00
01
00
ff
01
ff
ff
01
00
00
01
ff
01
00
00
00
00
00
01
00
00
01
ff
00
00
fe
ff
ff
ff
ff
ff
00
fe
ff
00
00
02
00
01
00
00
00
ff
00
ff
01
00
ff
00
00
01
00
00
01
00
01
01
ff
ff
ff
00
00
00
ff
01
00
ff
00
00
00
00
00
ff
00
00
00
01
00
00
00
ff
00
00
fe
00
00
ff
ff
00
00
00
ff
00
ff
ff
01
ff
ff
ff
01
00
ff
00
00
00
00
00
ff
01
00
ff
ff
01
ff
00
00
01
00
00
00
00
ff
ff
00
00
00
ff
00
ff
00
00
ff
00
ff
00
ff
00
00
01
00
ff
00
ff
ff
ff
02
ff
01
ff
00
01
00
01
00
02
01
00
00
ff
ff
01
01
00
fe
00
01
00
00
00
00
01
ff
00
00
00
00
00
01
01
00
00
00
00
00
00
01
ff
00
ff
00
01
fe
00
00
00
00
00
00
01
00
ff
ff
00
01
01
00
00
00
ff
00
ff
02
ff
00
00
ff
00
01
00
00
ff
ff
ff
ff
00
00
00
01
00
00
ff
00
01
01
00
ff
00
ff
ff
ff
00
00
00
00
00
00
ff
fe
01
00
01
01
00
00
00
00
00
00
ff
ff
00
ff
00
ff
00
01
02
00
ff
ff
ff
ff
00
00
fe
ff
00
fe
00
00
ff
01
ff
ff
00
00
ff
01
00
00
ff
ff
00
01
ff
00
00
01
00
00
00
00
00
00
00
00
00
ff
ff
00
00
fe
00
ff
01
00
01
00
01
ff
00
00
ff
ff
01
00
00
00
00
00
01
01
00
01
00
ff
01
00
ff
01
00
00
01
00
ff
01
ff
ff
00
00
00
ff
ff
01
ff
00
ff
01
00
ff
00
00
00
01
ff
00
00
00
00
00
00
00
00
00
00
00
00
00
ff
00
ff
01
ff
00
00
00
01
ff
ff
00
00
ff
00
01
00
ff
00
ff
00
00
01
01
00
00
ff
00
00
ff
00
01
00
ff
00
01
00
ff
00
00
00
ff
00
00
00
00
00
00
00
ff
00
01
00
00
ff
ff
00
ff
00
01
00
ff
ff
ff
00
ff
00
00
00
00
00
01
00
00
ff
00
01
00
00
00
00
00
00
ff
00
00
00
ff
00
ff
ff
00
00
00
ff
01
00
00
00
00
00
ff
01
ff
00
00
02
00
ff
06
02
01
00
fc
03
03
ff
02
08
05
00
03
fe
02
03
03
ff
05
fd
05
02
fb
04
05
00
ea
fa
08
04
04
fd
01
fe
fd
fd
00
fc
03
00
fc
00
07
01
03
ff
ff
03
f8
fd
00
fb
fd
03
fd
ff
03
03
02
05
01
fe
fa
ff
fd
00
f6
05
05
01
05
fe
00
02
00
03
fd
fb
01
0f
04
06
ff
01
0b
01
fe
04
05
fd
0b
fd
fc
fb
00
ff
fe
03
01
00
02
fd
ff
00
00
ff
04
ff
00
f9
07
f9
00
fb
fe
04
06
06
02
ff
fe
01
fe
09
04
07
ff
08
00
06
fd
fa
f6
fb
00
04
02
08
ff
07
02
02
01
07
03
00
00
02
00
06
08
f6
f6
01
01
09
04
fd
06
fd
0a
fd
06
05
00
05
f5
f9
f9
ff
0a
fe
fb
06
f8
00
fb
05
01
02
ff
04
02
fd
05
05
03
fb
f5
04
02
09
05
fa
09
05
fd
06
06
fd
fc
05
04
fd
01
fb
01
fc
fd
02
00
fc
00
fe
fc
07
06
f9
03
05
03
fb
fd
05
01
06
f9
01
fb
03
03
02
06
fc
00
04
05
06
02
03
02
06
00
05
06
05
fb
04
02
05
03
00
02
fd
02
02
f9
01
00
00
fa
02
02
07
05
02
0a
00
fe
04
02
fd
02
03
f4
fc
ff
ff
f8
ff
fe
01
ff
07
06
fe
02
01
01
04
fb
00
00
ff
fe
ff
00
00
fe
ff
00
00
00
00
00
00
00
00
01
ff
00
ff
00
ff
01
ff
ff
00
ff
00
00
01
01
00
ff
00
ff
ff
fe
01
00
01
00
00
01
00
00
ff
00
00
00
00
00
00
00
01
00
ff
00
ff
00
ff
ff
00
fe
ff
00
00
ff
00
ff
00
00
fe
00
00
00
ff
01
ff
ff
ff
00
00
ff
00
ff
00
00
00
00
ff
01
00
00
00
00
00
ff
00
00
01
00
ff
01
00
ff
00
00
ff
00
00
ff
01
00
00
00
00
ff
00
00
ff
00
ff
00
ff
00
ff
00
00
01
01
ff
01
00
00
ff
00
00
01
00
01
ff
01
01
00
00
00
ff
00
ff
ff
ff
00
00
00
01
02
00
ff
00
01
ff
00
ff
ff
ff
00
00
00
00
ff
00
00
00
01
00
01
00
01
01
00
00
00
01
00
ff
00
ff
00
00
ff
00
00
fe
00
00
01
00
00
00
00
ff
00
ff
ff
00
00
00
ff
ff
01
01
00
01
01
00
ff
00
00
01
00
01
01
00
00
00
00
01
00
00
fe
01
00
00
00
00
00
00
ff
00
00
ff
ff
01
00
ff
00
00
ff
00
00
ff
ff
01
00
00
00
00
01
01
00
00
00
00
00
00
00
00
00
01
ff
00
01
ff
00
ff
00
01
01
01
00
01
00
ff
00
01
ff
00
00
01
01
00
ff
01
00
01
00
00
00
01
00
00
00
00
02
01
ff
0b
fa
f5
fd
00
fe
01
13
ed
ff
fb
ff
f4
fe
f9
03
16
04
fa
fe
fa
f2
01
04
00
e5
01
fe
00
fd
e1
fa
f9
ef
1c
03
00
fa
e5
fd
20
09
fc
fe
fc
00
00
08
f2
02
06
17
f3
02
f7
f4
02
ff
f2
11
00
0f
ed
0b
01
fe
02
02
f8
f5
fc
f6
fb
02
fd
fd
10
de
00
06
00
0a
f0
01
0a
01
f5
03
fb
f9
e0
01
e4
ff
13
fc
ee
fa
fc
00
0a
02
ef
03
02
fa
f1
0a
fb
ec
01
ff
e5
04
03
fc
06
10
10
ea
09
f3
07
fc
0e
d5
fc
c9
02
ff
fb
0c
04
06
fd
ff
f8
ff
f7
f4
00
f0
ff
fc
02
c4
02
fc
03
2c
01
e6
db
0e
f6
ed
01
f0
ef
01
02
dc
ff
03
10
08
ef
ee
0f
fb
09
f0
de
06
39
f9
03
07
04
01
09
ff
f6
fa
ef
08
e9
ef
ff
ff
f3
0d
f8
01
00
01
f8
03
02
f7
00
fb
fe
00
fd
fa
2b
06
00
fb
0a
f0
e9
0c
fe
02
07
08
fd
f9
fb
ea
ff
01
f9
06
f9
fd
01
f4
fe
0b
fb
fe
08
08
05
f9
0a
07
06
07
01
08
00
f6
e9
0e
00
00
03
05
01
fb
00
02
f9
07
81
04
0b
01
f9
fb
fd
ef
f4
ed
1a
f7
16
fb
ee
01
03
f9
07
fc
e7
fc
e8
04
eb
f3
ed
ff
ff
02
fa
09
ee
dc
e8
03
f5
ff
05
f4
1a
0d
ff
01
0e
19
00
f7
fc
f3
19
03
02
0b
fa
05
f8
01
f7
ff
02
09
03
03
fa
05
ff
06
ff
fd
01
12
0a
ff
00
ff
fb
06
05
02
04
08
f6
04
17
01
09
f6
02
fb
fb
06
12
f2
0b
ff
fb
09
03
fb
0a
01
ff
0b
ff
05
02
03
02
fd
f3
fd
fe
0f
10
f4
07
05
ff
0a
01
0f
00
24
fe
02
0a
fe
0b
01
00
06
03
00
ff
00
f2
02
05
01
12
f2
04
01
f9
fa
05
02
19
04
05
00
fc
f9
f9
04
fd
fe
fa
01
fc
f5
01
e6
04
09
e8
e7
f9
0c
fe
03
01
05
fe
02
03
01
ff
fb
fe
07
02
06
02
f9
ff
0b
00
04
fe
f4
fd
1d
00
06
f8
fb
01
fc
07
fa
14
fa
1b
ff
ff
07
0a
00
03
16
01
01
fd
ee
1e
03
09
03
04
f2
01
00
01
05
04
ff
00
f7
00
04
fa
fd
08
02
fd
04
05
f8
ec
13
f8
f0
fc
04
03
fd
0c
f6
fd
ff
f5
0a
fa
01
02
fc
ee
01
01
ff
03
02
16
df
ea
0b
fc
01
fe
13
05
0e
fd
02
02
ee
fd
00
fd
f8
f6
ff
01
fc
f9
11
16
fd
0f
07
fe
18
00
f5
00
ff
f6
f9
34
fe
fc
03
f8
f8
08
f4
05
fb
00
0c
f9
03
02
00
fc
03
f5
01
0e
fe
01
ff
f6
fa
f9
01
f6
01
04
f8
fe
f3
f3
19
00
01
f6
0c
02
00
02
fd
00
06
05
fc
fe
fd
02
02
0a
02
03
0a
fc
04
00
07
00
00
01
05
fe
02
fe
05
03
05
fa
03
03
fb
fc
fe
04
00
02
02
09
fc
02
01
09
02
fb
00
fe
02
03
04
00
fe
04
01
05
05
fd
f5
ff
fd
00
09
04
05
01
02
fe
02
03
01
00
03
fe
00
f9
fd
02
04
00
00
02
0f
02
01
ff
02
01
03
02
01
04
00
02
ff
00
0b
03
05
06
08
03
01
06
01
f8
01
10
08
ff
04
02
02
ff
00
ff
00
00
fd
01
fc
00
03
f9
0b
07
00
01
07
00
00
f7
00
00
0d
00
fc
02
fc
01
05
04
02
07
03
01
04
ff
fb
ff
09
fd
02
fe
04
fe
03
01
01
04
02
fa
07
09
00
ff
f8
00
02
07
0a
ff
09
0b
fe
f8
00
fc
05
ff
ff
00
03
ff
fa
0a
04
00
06
fa
ff
09
02
01
05
fc
00
06
ff
03
10
00
04
01
04
05
02
02
07
ff
fe
08
04
ff
03
fa
fc
03
01
f9
fe
fb
07
f8
fb
03
0b
06
fa
fc
06
02
01
0b
ff
02
ff
ff
fe
03
00
03
fb
00
04
01
02
0d
03
02
fe
f3
fd
01
00
01
ff
06
fe
10
fe
0a
fb
08
03
fc
05
04
0b
00
05
02
fd
0e
ff
ff
00
06
06
04
05
04
03
05
05
07
04
05
00
fd
f9
07
fe
06
12
10
01
06
09
ff
00
00
00
00
ff
02
01
ff
01
00
ff
ff
ff
fe
01
01
01
ff
ff
01
ff
00
ff
ff
00
01
01
fe
ff
01
00
00
00
00
ff
00
00
ff
ff
00
ff
ff
ff
00
00
ff
ff
01
00
00
01
00
01
00
01
00
00
ff
00
ff
01
00
ff
00
00
ff
01
00
ff
00
00
ff
00
00
00
01
00
00
00
ff
00
00
00
00
01
ff
00
ff
01
01
00
ff
00
01
00
00
00
ff
ff
00
01
00
00
00
00
00
00
00
ff
00
00
00
00
ff
ff
00
00
00
ff
01
00
ff
01
ff
01
00
00
00
ff
00
ff
01
fe
ff
00
ff
ff
01
ff
00
ff
00
ff
00
ff
ff
00
00
00
01
00
ff
ff
01
01
00
00
ff
01
00
00
00
ff
00
01
00
01
00
00
00
00
fe
00
01
00
01
00
00
ff
00
01
00
ff
fe
00
01
00
00
01
ff
01
00
ff
00
00
00
00
00
00
ff
ff
00
00
ff
00
00
01
00
01
00
ff
fe
00
00
00
ff
00
ff
00
ff
00
00
ff
00
ff
01
00
01
00
01
00
ff
00
ff
fe
00
01
00
ff
00
00
01
00
01
ff
01
00
00
ff
ff
00
ff
ff
ff
ff
00
ff
00
ff
01
00
00
00
ff
00
ff
ff
00
00
01
00
00
00
00
ff
ff
00
01
00
01
01
ff
ff
00
00
00
ff
00
00
00
00
00
ff
01
00
ff
ff
00
00
ae
8b
fc
fd
c6
d7
00
06
fd
09
d0
03
de
cc
e7
01
02
fb
07
01
ff
04
f5
d7
00
cc
03
e2
fd
fc
04
c7
ec
fc
04
f9
07
03
bc
02
f2
01
0b
fd
fe
fe
06
03
00
11
01
0e
93
0a
e7
01
dd
e2
f9
fc
0b
f1
00
ee
1a
fb
00
00
fc
fe
03
1e
07
06
07
02
0e
03
fb
f7
04
81
01
ed
fa
02
fd
ff
0a
02
01
00
f0
ff
ff
fb
0c
fc
11
13
02
04
fe
00
e7
fd
f8
fd
0b
fa
ff
0e
01
04
07
ff
ff
f9
03
f1
fe
fd
0a
fa
f5
04
00
f9
e6
f2
02
fe
fd
ba
03
0b
01
02
cc
00
00
09
01
05
ff
0a
03
ea
01
02
fe
0c
01
ad
03
08
ff
fd
01
ff
f1
02
fa
04
02
fe
e9
fd
fc
02
0d
03
04
db
04
f4
0e
05
fe
00
00
fc
13
01
ea
01
11
0f
05
ff
06
ff
d6
fe
04
01
00
04
d8
fd
fb
ee
07
e6
0b
04
f2
fe
00
fe
00
ff
ee
25
f6
ff
02
00
d0
00
05
ff
ff
eb
19
09
fe
02
08
df
01
f3
fe
00
06
01
fc
fd
fe
01
00
04
fa
00
02
fd
02
f1
ce
ff
03
f4
00
c3
fb
e6
fd
ff
05
11
0c
ff
0c
ff
e9
07
00
f3
fc
fd
03
fa
08
fb
d4
ff
ff
fa
f9
00
e6
ff
06
de
f6
09
36
05
06
fd
ff
0b
fd
fc
07
f6
f8
fe
05
04
22
18
04
01
07
17
01
06
02
15
1f
fe
0e
ff
ff
ff
00
02
0f
fc
09
03
f4
0a
00
06
f6
06
03
03
fe
15
01
ff
00
04
00
fe
0b
04
03
eb
0f
01
f7
01
02
ef
01
fc
df
f7
1f
12
0d
fa
02
13
ff
ee
f9
fe
ff
07
f5
03
02
00
07
01
08
fe
f6
05
03
f9
f8
02
01
07
fd
1f
01
15
07
00
fc
03
07
fe
04
f7
f3
fb
db
fd
12
05
ee
02
fe
f9
11
02
fb
f6
f0
f5
fc
0a
08
f3
04
05
02
00
fe
03
fc
03
03
06
fe
03
f2
eb
fb
0a
04
00
03
05
09
fe
fc
f5
f8
02
ff
00
f7
f6
ff
02
fe
fd
00
07
00
00
fe
f9
02
1a
db
04
ff
03
00
02
09
fa
fb
fb
0c
02
0b
02
04
04
f4
fb
00
02
0d
03
f7
02
fd
f4
00
ff
fe
00
f8
00
f3
f4
01
06
f8
fd
fb
02
04
0c
fa
04
fe
00
08
0f
07
fd
f4
fe
0b
00
04
fc
01
05
f7
f6
f8
ff
fe
00
09
00
03
00
01
01
f8
ff
07
03
f9
1a
ff
06
01
02
e4
02
06
03
02
02
ff
fe
fb
05
02
fe
ea
18
0f
02
0a
08
f8
0a
00
02
00
01
01
03
18
fd
fb
ff
f8
00
01
0d
fa
09
0e
01
01
fc
fb
00
ff
0d
09
02
02
fe
02
05
f7
00
f5
06
f7
00
ff
fe
f9
06
ee
08
f9
fe
fe
f6
ee
ed
06
f9
bf
cf
05
01
02
0c
c4
00
dc
cb
08
01
f9
04
01
fe
05
fa
03
f0
01
e5
f7
d7
02
04
fd
ea
f7
f3
04
04
fe
fd
f3
fb
ea
ff
0a
03
f8
fd
fb
ff
fd
fe
04
ef
ec
0c
f3
01
fc
d8
f8
00
f9
04
06
e4
f2
f0
fc
01
06
00
03
f0
ff
f7
03
ff
fa
05
f9
f7
04
ef
02
fe
01
fe
f7
fe
f1
ff
fe
01
e7
ff
03
02
0a
00
01
e6
01
14
03
ff
12
03
ff
f3
01
00
f7
fe
00
02
e8
fc
01
fe
03
08
ea
ec
f6
08
01
fb
fe
e6
0a
09
fe
f1
00
eb
fe
fc
01
02
f5
02
f9
04
fc
ff
ef
fe
00
f8
02
ff
ff
f6
ff
ce
05
fa
fd
0e
00
09
f4
03
f6
11
ea
00
fd
fd
02
02
f3
fb
02
f0
fd
eb
fb
f9
fa
02
fe
fc
ee
04
fc
ff
01
04
02
01
02
04
f8
f9
fb
04
03
ff
df
ff
00
11
eb
fe
fd
01
e3
fb
fa
01
fe
01
06
f6
f9
fd
01
00
ef
05
04
03
02
ef
f5
fa
00
01
fa
02
05
fa
fe
f6
01
02
fa
0e
fe
05
f3
f4
ff
fe
fe
fe
26
0c
e1
04
fa
18
fe
dc
fd
01
fc
05
06
f2
2a
02
fb
00
04
01
fe
08
f0
f2
fd
ff
f0
f4
cf
02
01
08
00
00
d3
f3
f9
ff
f8
07
02
ff
f8
fe
02
01
f4
e4
12
10
fc
02
02
0a
ec
e8
fe
00
ec
ee
01
00
ff
ff
f2
ff
f4
e9
f7
ff
01
fe
02
ff
ff
fe
fd
ee
ff
ed
00
f5
03
fe
ff
f6
00
01
00
00
00
00
f3
00
f5
fe
ff
ff
00
00
fe
01
00
fe
ff
f4
f8
00
f8
00
fb
f4
ff
01
f9
03
ff
fe
f6
fe
00
ff
00
00
ff
fd
01
f4
fe
fe
01
01
00
01
ff
f4
01
fd
f7
00
01
fe
fd
ff
02
fe
f7
ff
fd
00
ff
ff
fe
fb
01
fd
ff
01
f7
01
ff
00
01
fe
ff
01
fd
ff
07
ff
00
00
01
00
fc
01
ff
00
00
fd
fd
05
fb
00
01
fd
00
eb
ff
ff
01
00
ed
ff
f9
01
fe
ff
fd
01
00
00
00
ff
01
fe
00
f7
fd
fb
00
f7
ff
00
f7
fe
fb
00
fd
ff
ff
02
00
01
fe
00
00
f7
fe
00
fb
fe
ff
01
ff
fc
01
01
f5
01
00
ff
00
02
00
00
f9
01
00
ff
00
00
f1
ff
01
fe
ff
fa
01
ff
f8
00
01
fe
ff
01
02
fc
fd
01
00
ff
fe
03
00
00
ff
f7
fb
00
01
00
00
fd
ff
f8
fe
fa
fa
00
01
ff
00
ff
ff
ff
fc
02
01
01
00
00
f8
00
fd
00
00
f4
ff
fc
00
00
01
fd
fe
ff
ff
ff
fa
02
fe
02
fe
01
01
ff
01
fc
f6
00
00
00
01
ff
f8
fc
00
ff
fe
02
fc
00
01
fe
ff
ff
fe
02
00
01
f7
ff
ff
00
11
16
02
fc
00
10
fd
f9
fb
fb
ff
01
00
13
01
08
ff
02
f9
04
fe
04
fe
0d
01
09
fa
01
fd
fe
01
f8
03
fa
03
0b
2a
07
fc
04
04
ff
06
fd
04
01
f7
f9
fe
f9
01
08
fe
f5
fc
ff
02
f7
f4
01
0c
ff
f8
f2
19
e9
09
ff
01
02
f7
fe
03
0a
fb
00
04
01
e9
05
00
07
01
f9
02
fa
fb
f7
f5
fe
06
03
05
fe
00
04
f6
01
07
0e
f8
fe
08
02
0a
ff
00
03
04
fb
04
01
f8
fb
ee
fe
fc
0a
01
f8
ed
ec
0e
eb
ff
03
04
e3
ee
f8
02
0b
fc
0d
ff
08
02
ff
14
02
fd
f3
ff
fa
f4
f8
fe
fb
03
fe
01
29
04
ec
03
05
fd
06
01
f2
f6
00
0d
02
f8
ff
0c
f8
fe
fe
0d
05
11
00
ff
fe
07
f4
fc
f4
03
05
02
02
f9
fe
f3
fb
f5
d1
05
fd
01
e5
f3
f0
05
02
08
02
f4
06
c8
fd
0b
fa
f6
01
f9
08
fe
fd
ef
05
f8
fc
03
04
02
fd
ff
19
fc
fb
06
ef
f6
f0
f3
f7
ff
08
03
03
0d
fc
02
fd
05
fe
f0
f1
08
ff
03
fb
fa
ab
e6
f7
07
fc
06
03
01
f1
ff
01
ed
f7
2c
fc
09
01
fc
f2
01
cc
fd
05
c1
fb
13
06
e8
02
fe
b6
0e
00
f0
0e
fd
0e
f9
f4
0c
03
eb
04
ff
06
ff
ec
e1
e0
0b
02
06
02
ff
ff
ff
01
00
00
01
00
ff
00
fe
00
01
ff
00
ff
00
00
00
00
01
00
ff
01
fe
00
00
00
01
ff
01
00
ff
00
00
ff
00
ff
00
fd
00
00
00
00
00
00
00
00
00
00
00
01
01
01
00
00
00
01
00
00
00
ff
ff
ff
00
00
00
ff
00
00
ff
00
00
00
ff
00
00
00
ff
ff
01
ff
ff
ff
01
00
00
01
00
00
ff
00
00
01
ff
01
00
00
01
01
ff
00
00
00
01
00
01
ff
00
00
01
ff
00
01
00
00
ff
ff
00
ff
ff
01
00
00
ff
00
ff
00
00
00
00
00
ff
ff
00
00
ff
00
00
01
01
ff
ff
00
ff
01
00
00
00
01
ff
00
01
01
00
ff
00
01
ff
01
00
00
00
ff
01
ff
00
00
ff
00
00
00
00
ff
00
00
00
00
01
01
ff
00
00
01
01
00
00
00
00
00
00
00
01
ff
00
01
00
00
00
ff
00
00
ff
00
ff
01
ff
00
00
ff
ff
ff
00
02
00
00
00
00
00
00
00
00
00
00
00
00
ff
00
00
00
ff
01
00
00
00
01
ff
ff
ff
00
ff
00
00
00
00
00
00
01
ff
00
01
ff
00
01
01
00
ff
ff
00
ff
fe
00
ff
00
01
00
ff
00
00
00
ff
00
00
00
ff
01
ff
ff
00
00
ff
ff
00
ff
00
00
00
ff
fe
00
00
00
ff
01
00
01
ff
01
ff
00
20
17
06
01
0d
18
fd
f8
01
11
13
fd
0f
0b
fd
fe
f3
05
03
fe
09
00
f8
ff
01
14
00
0a
fe
ff
01
0a
ff
01
fd
03
0d
02
07
01
02
07
18
f8
07
01
ff
fd
fd
f7
f7
f7
0a
15
fa
02
f2
10
09
0b
f0
04
fe
18
ee
16
02
fe
ff
fe
08
f6
06
fe
0f
00
f1
02
0f
fd
ff
0e
ff
f6
01
08
11
07
f9
06
ff
05
f9
03
fe
02
14
fb
f5
07
08
02
03
ff
f8
f7
0c
ed
f8
0b
07
ea
0a
02
e1
01
00
06
02
f8
f9
de
01
fd
0f
f9
08
d7
f7
05
fc
0c
00
09
01
1d
01
ff
f7
fd
ec
f6
fe
f8
ff
ec
01
0c
ff
03
fe
1a
00
12
fd
0d
01
03
01
ea
f8
ff
f9
ed
07
fd
05
06
f2
00
1a
03
03
f2
00
e5
fa
fd
00
05
ff
ff
fb
ff
ec
03
e1
f9
fc
fb
08
00
ef
f1
0a
00
fc
fd
0e
f9
02
ec
f7
f4
f5
fd
02
01
0d
11
fd
00
fa
f6
ef
02
00
04
04
fa
05
06
f6
f7
fb
00
06
f9
f8
ee
01
03
ff
fc
ff
01
05
ff
fc
04
fd
f2
f9
fd
00
ff
f9
fe
12
f7
07
df
ff
14
00
ea
f8
ff
f2
f7
17
fc
06
ff
f1
e9
04
f1
f9
f0
ee
04
11
f8
24
ff
02
fd
fd
fc
10
fa
ed
0d
ee
ef
f7
01
fa
01
fe
f5
fa
d7
ee
03
07
fe
f9
06
03
01
00
00
ff
fe
fe
03
01
04
02
fc
00
fe
fe
03
03
00
00
02
02
fc
03
02
ff
01
02
02
fb
03
fb
00
01
fd
05
05
02
02
01
00
fe
02
05
05
ff
00
00
03
fb
ff
07
00
07
07
fd
00
03
01
01
ff
00
01
00
05
03
05
01
03
05
01
02
00
fe
fe
00
ff
00
02
03
03
02
07
01
07
ff
02
01
ff
01
00
fd
fd
01
01
04
00
08
ff
ff
01
ff
fa
ff
00
02
fc
05
03
ff
03
02
00
fd
00
01
fe
02
00
00
ff
01
06
ff
03
04
06
fc
01
ff
fe
fe
04
fa
01
ff
04
ff
ff
02
fd
01
fe
00
ff
01
00
ff
fd
00
01
ff
02
00
05
05
fd
fd
01
ff
01
ff
00
ff
09
07
01
03
fe
fd
00
03
ff
04
fd
03
05
08
00
fd
02
01
fb
00
ff
01
01
fd
00
03
fb
fd
01
01
ff
04
fc
fc
fe
00
fa
08
03
05
02
fc
ff
01
ff
05
fe
00
00
09
ff
ff
04
02
02
0a
06
00
05
ff
01
01
01
03
05
00
02
ff
fb
fd
fe
06
00
02
fa
ff
02
ff
00
00
fe
00
02
05
fe
06
01
00
03
02
01
01
01
fe
00
00
ff
0b
02
fd
02
00
ff
01
fa
ff
fe
03
03
ff
fe
07
00
fe
fd
fd
ff
05
01
01
02
fc
00
00
00
03
ff
00
04
02
04
03
07
fd
01
ff
04
00
ff
00
ff
ff
00
00
01
00
ff
fe
ff
fe
ff
00
00
01
01
01
ff
00
00
ff
01
00
00
ff
00
00
ff
01
ff
00
fe
00
ff
00
00
00
00
00
01
ff
00
ff
ff
ff
ff
00
01
00
00
ff
01
ff
00
00
fe
00
ff
ff
00
00
01
00
01
00
ff
01
01
ff
01
fe
ff
01
00
ff
00
ff
ff
00
ff
01
00
00
00
ff
00
01
01
00
ff
00
ff
00
01
00
01
00
00
00
00
00
01
00
00
00
00
00
ff
00
01
ff
00
ff
ff
00
00
00
ff
00
00
ff
ff
00
00
ff
00
ff
01
00
00
ff
ff
00
01
ff
00
01
01
ff
ff
00
00
00
00
00
00
00
ff
fe
00
00
ff
00
01
ff
01
00
00
ff
00
00
00
00
fe
ff
00
ff
00
00
01
ff
fe
ff
ff
01
00
ff
ff
00
ff
00
ff
00
02
00
ff
00
00
ff
00
ff
00
ff
00
00
00
00
fe
00
ff
00
00
00
fe
00
00
ff
00
00
00
01
02
ff
00
ff
ff
00
ff
00
00
02
ff
00
01
00
ff
01
ff
ff
ff
00
ff
ff
ff
00
ff
00
00
00
00
00
00
00
ff
00
00
00
ff
00
01
00
ff
00
00
00
00
ff
ff
00
00
00
00
00
01
ff
fe
00
ff
01
ff
00
00
01
00
ff
ff
00
00
ff
00
ff
00
00
01
00
00
00
ff
ff
00
00
00
01
01
00
01
01
01
d5
cf
f5
fe
e4
f7
f9
05
03
06
ee
03
0a
ea
08
04
06
f7
0e
fd
f5
03
eb
f4
03
e9
06
03
fd
fd
fd
e6
0a
03
ee
02
05
03
e2
fd
0f
05
03
fb
f8
00
08
f2
0b
05
fc
f0
d1
09
f9
06
08
05
01
08
0c
f8
03
0b
12
09
06
fb
01
ff
01
00
f7
ff
08
ff
0c
fb
00
03
04
cf
01
d2
0e
04
f9
04
fd
02
fa
fb
07
ff
fd
00
0b
ff
01
02
f8
e0
f5
01
04
00
07
08
fb
f0
05
ff
fd
01
00
02
01
04
ff
00
0d
e8
0c
00
03
0b
06
f4
05
00
04
ea
01
d7
fc
04
00
01
f3
03
05
fd
01
07
0b
ff
01
0b
01
fc
ff
09
ff
dc
fd
fd
05
11
01
fc
05
03
fd
05
e3
ff
e0
f2
f6
04
05
f8
ff
f9
0a
e9
e6
0d
02
f6
01
08
08
03
f5
fe
f8
07
05
0c
fc
04
07
fd
fb
ff
04
00
01
06
f9
e6
0e
0a
0d
f7
0c
03
02
0c
00
01
d7
02
02
f6
ff
02
de
f7
ff
01
00
04
00
18
00
f4
02
e5
ff
08
01
02
fe
fb
fa
f8
00
00
0a
05
06
02
01
f7
ec
e4
dc
fb
06
ec
00
e7
02
06
fd
ff
fe
15
0d
ff
0c
ff
06
fc
fc
ff
0a
09
ef
04
03
0a
1c
fb
01
fb
f1
ff
07
0b
fb
ee
fb
fd
0e
fe
fe
ff
fe
fa
0b
ea
0f
e8
0e
fe
09
e7
01
00
ff
00
ff
ff
ff
ff
00
00
01
00
00
ff
00
00
01
ff
ff
00
ff
ff
01
00
00
ff
01
00
00
ff
00
ff
ff
ff
00
ff
ff
00
ff
00
00
00
ff
01
00
00
00
00
00
00
00
ff
00
00
00
ff
ff
00
ff
00
01
ff
01
00
02
00
00
00
ff
ff
ff
01
01
00
ff
ff
ff
00
01
ff
ff
00
00
00
ff
00
00
00
ff
00
02
00
00
00
00
00
01
ff
ff
00
00
00
ff
00
ff
00
00
fe
00
01
00
00
00
ff
ff
ff
00
00
00
ff
00
01
00
00
00
00
00
00
00
01
ff
ff
01
ff
ff
00
ff
00
01
01
00
00
00
ff
ff
00
00
00
01
00
00
ff
00
01
00
ff
00
00
ff
00
ff
00
00
00
ff
ff
00
00
00
00
00
00
00
00
ff
00
00
01
ff
01
ff
00
00
00
ff
00
01
00
ff
00
ff
01
ff
ff
01
00
01
00
00
ff
00
01
00
00
01
ff
00
01
00
01
ff
00
ff
fe
00
00
00
00
00
00
ff
01
fe
00
00
01
00
00
00
00
01
00
00
ff
00
00
00
00
ff
01
ff
01
00
fe
00
ff
ff
00
00
ff
00
00
00
ff
00
00
00
ff
00
00
00
01
00
00
00
ff
01
01
00
00
00
ff
00
fe
00
00
00
00
00
01
ff
00
ff
00
01
01
ff
ff
00
ff
01
00
01
01
01
ff
00
ff
00
00
1e
0e
fe
03
06
02
fe
03
fb
02
19
ff
fc
fa
f8
fd
01
00
fe
05
08
fa
e3
ff
f8
0a
ff
f4
02
02
00
12
fa
04
f7
f2
fc
fc
0a
00
01
ed
03
fc
f1
02
05
fb
07
03
de
ff
08
ff
08
02
08
f8
05
e2
0f
06
fd
ed
0a
03
06
00
0a
fe
06
07
01
0d
fa
01
f1
02
07
f4
01
03
00
10
01
00
04
fe
0e
00
01
0d
f7
fd
d9
00
fd
01
01
0b
fb
f8
00
03
eb
04
e3
ff
fa
f8
f9
fa
00
02
f3
fb
01
03
02
13
ef
e2
00
fc
e4
02
f6
e5
0c
f8
ff
02
01
06
fd
f3
04
05
f8
fa
00
01
03
06
f4
df
00
fe
ff
02
fd
fa
00
1b
e3
01
f5
f9
02
fc
07
03
00
e9
0a
fa
fc
00
0f
04
f4
f5
00
fc
e3
fb
09
ff
04
00
03
fe
0b
ff
05
01
06
06
03
e6
02
05
09
f0
03
01
fd
02
ff
fb
fa
09
e2
09
f4
00
f7
f7
06
f7
ff
fe
f0
0c
01
fe
01
00
fb
ff
02
f5
0a
06
13
d5
f9
05
f2
05
01
12
05
0a
ed
04
fc
09
01
01
ea
f0
02
fe
ff
fc
ee
fc
09
fd
fe
02
fe
00
02
0c
ff
03
f6
f6
b1
00
00
00
0c
ec
04
ef
04
eb
e9
06
06
fd
eb
fd
04
f6
05
fe
f2
f7
0a
f4
06
eb
06
fc
f8
00
01
ec
0c
e4
f7
e0
07
ff
00
e9
ff
00
ff
ff
ff
ff
00
00
01
00
ff
00
00
00
ff
ff
00
ff
01
00
01
ff
01
ff
ff
ff
01
00
00
00
00
00
00
00
00
ff
00
00
ff
00
ff
00
00
00
00
ff
00
00
00
00
ff
00
00
01
00
00
ff
ff
01
00
01
00
00
00
00
ff
01
00
ff
00
00
00
00
01
ff
ff
01
ff
00
ff
00
ff
00
01
00
01
ff
00
01
ff
00
00
01
ff
00
00
00
ff
00
ff
ff
ff
00
ff
00
00
00
ff
00
01
01
ff
01
01
00
ff
00
00
ff
00
ff
00
ff
01
00
00
ff
ff
ff
01
00
00
ff
ff
fe
ff
00
ff
ff
00
ff
00
01
00
01
00
00
ff
fe
00
00
ff
00
00
ff
00
00
01
01
00
00
00
00
02
ff
00
02
01
00
00
ff
ff
00
01
ff
00
00
ff
ff
00
ff
00
00
00
00
00
00
01
ff
00
00
00
00
ff
00
ff
01
01
00
00
00
ff
00
00
00
ff
00
00
ff
00
ff
00
01
00
01
00
ff
ff
01
00
00
01
00
ff
00
ff
00
03
01
01
00
00
00
00
ff
00
00
ff
02
ff
00
01
00
00
00
00
ff
00
ff
00
00
00
00
00
01
00
ff
00
ff
00
00
00
01
02
01
ff
01
00
00
00
00
ff
01
00
01
ff
ff
01
ff
00
01
00
00
00
01
ff
ff
00
01
ff
fe
ff
01
ff
01
01
ff
00
00
ff
0d
0d
02
02
0a
0a
00
f2
05
00
0b
00
02
08
00
fb
fd
02
fd
f9
01
05
06
04
01
07
fb
05
04
ff
fc
02
fe
05
00
01
ff
04
ff
02
05
00
ff
ff
0c
01
f9
f8
00
fb
00
03
14
fb
05
02
02
03
00
fb
fe
08
ff
00
02
f5
fb
01
fc
00
05
fe
f7
03
07
fc
f8
fe
ff
ff
ff
10
01
12
02
03
01
ff
fd
00
ff
03
07
fc
00
02
fd
fe
04
fb
04
01
06
00
04
fb
fc
fb
05
07
00
04
02
ff
f6
fd
02
04
03
00
00
fa
fe
fd
fc
f9
f9
f8
02
02
00
fe
fe
07
fe
0a
03
02
05
00
fe
fb
fe
fd
fd
f6
ff
fe
ff
01
ff
00
01
0d
01
fe
f6
02
fe
07
ff
fe
f7
06
0b
02
05
00
06
fb
02
0b
f9
03
ff
fd
07
fd
fd
fc
ff
f8
f7
fc
04
06
08
f6
fd
ff
fd
ff
fe
00
fd
fb
ff
fe
04
fd
01
07
01
00
f8
01
fd
fe
f6
ff
01
ff
04
05
05
fe
02
ff
01
04
04
fe
fe
ff
f9
0a
fb
0d
f8
fe
fe
ff
fb
fa
fb
03
01
01
fe
f8
fc
f9
01
01
fe
06
05
06
0b
ff
03
07
f9
08
ff
ff
02
01
fa
fe
09
fb
03
fe
fe
f8
01
00
fc
fd
01
01
fb
fc
03
00
ff
04
09
ff
04
fe
04
0f
01
fb
fe
02
fd
02
01
03
f9
fb
04
10
ff
ff
fe
08
00
00
00
ff
00
01
00
01
00
00
00
00
01
ff
00
01
01
00
00
00
00
00
ff
ff
00
00
fe
00
00
00
00
ff
00
00
00
01
00
ff
ff
00
ff
ff
01
ff
00
00
00
00
01
ff
00
01
00
01
00
ff
00
00
00
00
ff
00
00
00
00
01
00
00
00
00
ff
00
00
00
00
00
00
00
00
01
00
00
00
ff
01
00
ff
00
01
01
ff
00
ff
01
00
00
00
ff
00
01
ff
ff
00
00
ff
00
00
00
ff
00
01
00
ff
00
01
00
00
ff
00
00
ff
01
ff
01
ff
00
00
00
00
00
00
00
ff
01
00
00
00
fe
01
ff
00
ff
00
00
01
00
00
00
00
01
ff
ff
00
fd
00
00
02
00
01
00
00
ff
01
00
ff
01
00
ff
01
00
00
ff
00
01
00
00
00
01
00
ff
00
01
ff
00
ff
01
01
01
00
ff
00
ff
01
ff
00
00
ff
00
00
00
00
00
00
00
ff
ff
00
00
ff
00
00
01
ff
ff
00
ff
00
00
01
01
00
00
00
01
01
01
00
ff
00
00
01
ff
00
fe
00
00
ff
01
00
00
ff
00
ff
00
ff
ff
00
01
00
01
00
ff
ff
00
00
01
ff
00
01
00
00
ff
ff
00
ff
00
fe
00
ff
00
00
ff
00
00
00
ff
00
00
00
00
ff
00
01
00
01
01
00
00
00
01
00
00
01
00
01
01
01
ff
00
ff
0e
06
02
01
05
06
ff
fc
fe
00
0c
ff
02
00
fd
fd
fc
ff
fe
00
01
02
fe
02
00
08
ff
fd
fe
fe
01
07
fe
01
01
00
02
02
02
00
00
00
01
fe
ff
00
00
fd
ff
ff
fe
ff
01
02
03
ff
02
00
ff
02
ff
ff
ff
01
00
ff
00
ff
fd
00
fe
01
00
03
00
ff
ff
ff
01
fd
ff
02
00
05
fd
fe
01
ff
00
00
02
01
fd
00
fe
ff
ff
00
00
02
fe
00
ff
01
fb
00
02
02
00
ff
fe
01
ff
fe
f9
01
00
00
02
00
01
ff
02
01
01
02
00
fd
03
fd
00
02
fd
01
00
01
ff
ff
fd
00
fe
fc
ff
01
fe
fd
00
fd
00
ff
ff
01
ff
06
fe
ff
00
fd
01
01
ff
00
03
ff
03
ff
02
fe
fe
01
01
ff
00
00
fe
fe
03
01
00
fe
01
00
00
ff
ff
ff
00
ff
01
fb
00
00
01
fd
01
00
fe
fe
00
00
00
fd
fe
03
fc
fe
00
fe
01
01
01
fe
fc
03
00
fe
ff
01
ff
fd
00
00
ff
fd
00
fd
01
ff
02
fe
00
05
fe
00
ff
ff
01
01
fe
ff
ff
ff
00
01
01
ff
fd
fe
05
01
fd
fd
00
02
ff
02
ff
ff
fd
fd
03
fe
00
ff
01
fe
00
fa
00
00
fc
fe
01
ff
ff
ff
01
fe
ff
fe
ff
ff
00
01
01
fa
00
01
fc
01
fe
ff
ff
ff
ff
fc
02
00
01
fe
01
02
05
00
04
fa
05
08
fc
07
03
01
fb
fe
08
0a
00
04
fe
fc
ff
fd
0c
00
00
f5
f2
04
06
00
ff
fc
fe
fe
05
06
00
fe
02
f8
01
e8
06
0a
04
02
f5
fa
fe
f3
03
04
0f
03
11
fa
f2
01
03
e2
fd
0e
06
fd
fd
fe
fc
02
0a
01
ff
02
fb
01
ff
00
e5
fc
07
00
02
0d
01
11
03
fc
fd
ff
00
fe
f9
f7
0a
fe
04
fd
03
07
ff
f2
0a
f2
09
00
0a
00
dc
f9
03
0a
f8
02
02
fe
02
04
02
fc
01
0e
04
01
f8
fc
dc
f7
e3
03
08
02
fe
05
02
f1
fc
f8
fb
ff
02
fe
00
fc
03
04
ff
08
ff
fc
00
02
02
00
04
16
04
f7
01
08
ff
06
06
06
f8
0f
fd
00
06
fe
01
01
f2
0a
fe
11
fe
f6
fa
fc
02
fe
02
e9
f9
03
04
fd
06
f1
00
09
fd
ff
f2
0e
ff
fe
fe
02
fb
ff
fc
18
0a
f8
03
fe
fc
00
fc
f4
05
04
f9
03
f9
03
fe
00
f8
fb
06
03
fc
ff
f1
08
ff
0a
03
0a
fb
f9
03
ef
fd
03
06
f7
06
00
07
02
fe
fe
fe
02
15
0e
12
05
08
22
f5
01
02
07
02
fd
06
f9
d8
00
f7
00
f2
05
fe
0d
fd
07
11
00
ff
02
fc
00
01
05
04
03
f6
05
fc
ff
f9
09
f9
fa
06
ff
fc
02
fe
fd
06
09
f9
01
00
fe
fa
fd
ff
ff
fd
fe
01
fe
ff
01
fb
ff
fe
00
fe
00
00
00
01
00
02
ff
00
00
00
fc
fe
01
02
ff
ff
fd
01
ff
00
01
fe
00
fe
ff
ff
ff
01
00
ff
ff
ff
ff
ff
00
ff
00
ff
00
ff
00
00
ff
ff
01
00
04
01
ff
01
fe
01
00
00
ff
01
00
00
fe
00
ff
00
00
01
02
00
ff
ff
fe
00
00
01
ff
00
ff
01
ff
02
01
00
00
02
ff
01
ff
00
ff
02
00
01
ff
ff
ff
01
ff
ff
ff
fe
ff
01
ff
00
01
01
02
ff
ff
fe
ff
00
fe
00
01
ff
02
00
ff
01
fe
00
fd
fe
ff
01
01
00
02
ff
02
fe
ff
fe
01
fe
00
00
fe
00
fd
00
00
00
01
fe
02
00
ff
fe
fd
ff
00
01
00
fd
01
fd
fe
02
00
00
ff
ff
02
ff
00
01
ff
ff
02
fe
ff
00
00
00
01
00
00
ff
01
03
01
00
00
00
01
fe
03
02
ff
01
00
00
00
00
ff
00
00
02
fe
fe
00
ff
00
01
01
ff
01
00
02
ff
01
fe
01
ff
ff
fe
ff
00
00
fe
01
01
01
01
ff
ff
00
ff
00
00
00
02
00
fe
02
01
02
00
00
ff
00
00
00
01
fe
ff
ff
00
00
00
00
ff
02
ff
01
02
00
00
fe
ff
ff
ff
00
01
00
00
ff
fe
ff
ff
00
ff
fe
00
ff
00
01
ff
00
ff
01
ff
00
ff
ff
ff
ff
00
ff
00
00
fe
ff
01
00
ff
01
01
00
00
ff
00
01
00
ff
ff
ff
00
ff
00
00
00
00
00
00
01
00
00
00
00
ff
00
ff
00
00
fe
00
ff
00
00
00
00
00
00
01
00
ff
00
00
00
00
ff
00
ff
00
00
ff
00
00
01
01
ff
00
ff
ff
00
ff
00
ff
ff
ff
00
ff
00
00
ff
00
00
ff
ff
00
01
ff
ff
00
01
00
ff
01
00
00
00
00
00
ff
00
00
ff
00
00
00
00
00
00
00
00
00
00
01
ff
01
00
01
00
00
00
00
ff
ff
00
00
00
ff
00
01
ff
00
00
00
ff
00
01
00
00
00
01
ff
00
00
00
00
00
ff
00
00
ff
ff
ff
00
00
01
ff
00
ff
00
00
00
00
00
00
ff
00
01
ff
ff
01
00
00
00
00
00
00
00
01
ff
ff
ff
ff
ff
00
00
ff
01
ff
00
00
00
00
00
00
00
00
ff
01
00
00
00
ff
00
00
01
ff
00
00
ff
00
00
00
ff
ff
00
00
ff
ff
00
00
ff
00
01
00
00
00
00
ff
00
00
ff
ff
00
00
01
01
00
00
00
01
00
01
00
00
ff
00
00
00
00
01
01
ff
00
ff
ff
ff
ff
00
01
00
ff
00
00
01
00
01
00
ff
ff
01
00
ff
ff
00
ff
00
ff
00
01
00
01
00
ff
00
00
ff
00
ff
ff
01
01
00
00
01
00
00
00
01
00
01
01
00
ff
01
ff
00
00
00
01
00
00
00
00
00
00
00
00
fe
00
00
00
ff
01
00
00
00
ff
00
00
00
00
00
00
01
00
00
00
ff
01
ff
00
00
ff
00
00
01
00
ff
00
fe
ff
ff
ff
ff
00
00
01
00
ff
ff
01
01
00
00
01
00
00
00
ff
00
00
00
00
ff
01
00
00
00
00
ff
01
00
ff
00
ff
ff
00
01
ff
00
00
00
ff
00
00
00
ff
00
fe
ff
01
ff
00
00
ff
01
ff
00
00
00
01
01
00
01
00
00
00
ff
00
00
00
00
00
00
ff
ff
00
00
ff
fe
00
ff
00
00
00
01
00
01
01
ff
ff
00
ff
01
00
00
fe
00
00
00
01
ff
00
ff
00
00
01
01
01
ff
00
00
00
ff
00
ff
00
00
00
00
ff
00
ff
00
ff
ff
00
00
ff
ff
ff
00
01
01
01
01
ff
01
ff
00
00
01
01
01
ff
01
00
ff
01
01
00
00
00
00
01
ff
01
00
fe
ff
00
00
01
00
00
00
01
01
00
00
01
00
ff
ff
01
01
00
ff
ff
00
00
ff
ff
ff
00
02
01
00
01
00
ff
00
ff
ff
00
00
00
00
01
00
01
00
ff
00
00
ff
00
ff
00
ff
00
ff
00
ff
01
ff
00
01
00
00
00
01
00
01
00
00
fe
00
01
ff
00
01
fe
00
00
ff
00
01
fe
ff
ff
00
00
ff
fe
00
ff
01
00
00
00
ff
ff
00
00
00
00
ff
01
00
00
01
00
01
01
01
00
00
01
00
01
00
01
00
00
00
00
02
00
01
00
01
00
01
ff
01
ff
01
00
01
ff
00
00
00
00
00
00
00
ff
00
ff
00
02
00
00
ff
00
01
01
ff
02
00
00
00
00
01
00
00
00
ff
00
ff
01
00
00
fe
00
00
00
ff
fe
00
ff
00
ff
01
ff
00
ff
ff
00
ff
00
ff
00
00
00
ff
01
00
ff
00
ff
00
00
00
00
fe
ff
00
ff
00
00
00
00
00
fe
01
ff
00
00
ff
01
ff
ff
00
ff
00
ff
00
ff
01
ff
00
ff
00
01
fe
00
01
ff
fe
ff
00
ff
00
00
01
ff
00
01
ff
00
00
ff
00
01
ff
02
01
01
ff
ff
01
01
ff
fe
00
02
ff
ff
ff
fe
ff
fe
ff
00
ff
00
00
00
ff
00
ff
00
01
01
00
00
01
00
ff
00
00
01
00
ff
00
fe
01
00
ff
00
ff
ff
00
ff
00
00
00
ff
01
01
00
00
01
ff
00
00
ff
01
00
01
00
00
00
00
00
00
ff
ff
00
00
00
ff
00
ff
00
01
ff
ff
01
00
00
ff
fe
00
01
ff
ff
00
00
00
ff
00
01
00
00
fe
02
01
ff
ff
00
ff
00
00
01
00
ff
00
01
01
ff
ff
ff
00
01
01
fe
01
ff
00
01
ff
00
00
01
00
01
00
ff
00
00
00
00
00
00
00
00
ff
ff
01
ff
00
ff
ff
00
00
01
ff
00
ff
00
ff
00
00
ff
ff
00
00
00
00
ff
00
00
00
00
00
ff
00
01
00
00
00
00
01
00
00
ff
00
ff
00
00
01
00
00
fe
00
00
02
00
00
00
00
00
01
00
00
01
00
00
ff
00
01
00
01
ff
00
01
01
ff
ff
01
00
ff
00
01
01
00
00
ff
01
00
00
00
00
ff
ff
00
ff
01
00
00
ff
00
ff
01
ff
00
ff
01
00
ff
00
01
00
fe
01
00
ff
ff
ff
00
ff
00
fe
00
00
00
00
00
00
00
fe
ff
ff
01
00
ff
00
ff
00
00
01
ff
00
00
01
00
01
ff
00
01
00
ff
00
ff
00
01
ff
00
01
ff
00
ff
00
00
01
00
01
00
00
00
00
ff
ff
00
00
00
01
01
ff
00
01
ff
01
00
00
ff
fe
ff
fe
ff
00
ff
ff
00
ff
00
00
00
00
00
00
01
00
ff
00
01
00
00
01
01
ff
ff
ff
00
01
ff
00
ff
00
01
01
00
00
01
ff
ff
00
ff
ff
01
ff
ff
01
00
00
00
00
00
ff
00
00
ff
00
00
00
00
ff
00
00
01
02
00
00
00
00
00
00
00
00
01
00
01
00
00
01
ff
00
ff
01
00
00
00
01
ff
00
00
ff
ff
00
fe
ff
00
01
01
00
01
00
00
00
00
ff
ff
ff
00
00
00
00
01
01
01
00
00
00
00
00
cf
c5
fe
fe
df
df
01
00
0c
03
f1
01
e3
d0
ec
01
08
fe
0d
ff
f9
01
ff
de
03
c7
01
d0
06
fe
01
de
fe
01
f8
00
02
02
df
fd
ed
0c
05
fc
f4
fd
fb
f7
04
02
05
fe
e5
06
ff
05
fb
e2
08
08
fa
fe
fe
0e
f8
0b
ff
00
02
00
fb
f1
f6
f9
03
f6
04
02
00
fd
00
cc
ff
cb
ee
02
fe
ff
f6
fd
fb
fd
e0
00
02
fe
05
00
0a
e0
ff
14
06
01
e9
04
08
05
04
01
0b
07
fc
01
1a
fe
ff
fc
05
f6
fe
08
fd
f0
07
09
11
0c
00
f2
03
eb
f5
ce
fd
fc
05
fb
da
03
f3
07
01
01
ff
ff
00
fa
00
00
fe
fe
fe
f1
ff
04
fc
ed
01
06
ee
fa
02
08
e8
03
03
f9
00
00
0c
fb
01
f9
f8
07
dd
00
fe
06
fd
08
f3
ff
f8
fd
09
03
fb
0c
ff
02
fb
0a
f9
02
fe
04
d9
01
fd
ec
01
01
f3
02
f5
02
ee
f7
ff
fa
fb
f0
02
02
03
01
06
06
03
02
03
e8
e9
fc
f4
05
03
03
ff
00
fc
02
fd
fd
05
0b
ff
02
01
01
f7
01
ff
fa
0e
08
03
f8
01
f2
fd
d5
03
fd
fe
01
07
0d
28
04
f9
ff
08
01
ff
09
fe
0e
0c
fc
f2
f8
dd
01
00
0c
fc
04
de
f6
00
09
08
05
03
08
03
fd
ff
10
01
0a
fc
1e
f7
03
f7
04
00
02
ff
01
00
ff
fe
00
00
ff
00
00
01
01
00
01
ff
01
ff
ff
00
00
00
01
00
00
00
00
01
ff
00
ff
00
00
00
ff
ff
00
00
ff
00
01
00
ff
00
00
ff
ff
00
ff
ff
02
00
00
01
ff
00
00
00
00
00
00
00
00
01
00
00
00
00
00
ff
02
00
01
01
00
00
ff
00
00
ff
00
00
01
01
00
00
ff
01
01
00
ff
01
ff
00
ff
ff
00
00
00
00
ff
00
01
00
ff
ff
ff
00
00
00
00
01
ff
00
fe
00
00
ff
01
01
00
ff
00
00
fe
ff
00
00
01
00
ff
ff
02
01
01
00
00
01
00
01
ff
00
00
ff
00
00
01
ff
00
00
02
00
ff
00
01
00
02
00
00
00
01
ff
00
ff
00
00
00
ff
ff
00
ff
ff
00
01
00
00
ff
fe
00
00
ff
01
ff
00
00
01
ff
00
01
00
ff
00
00
00
fe
ff
00
01
ff
00
00
00
00
ff
ff
ff
ff
00
01
00
00
01
00
00
00
00
ff
01
01
ff
00
ff
01
00
01
00
ff
01
00
00
01
00
00
00
00
00
01
00
01
01
ff
00
00
01
ff
ff
00
ff
ff
01
00
00
00
ff
ff
01
ff
00
00
01
00
01
ff
00
00
00
01
01
ff
01
ff
ff
00
00
ff
00
ff
00
00
01
01
00
00
ff
00
ff
00
00
ff
ff
00
00
ff
01
00
00
ff
01
00
00
00
ff
00
ff
ff
ff
ff
00
00
ff
00
ff
ff
00
ff
ff
00
ff
00
00
ff
ff
00
00
01
00
00
00
00
00
00
ff
00
00
ff
01
00
ff
ff
00
ff
ff
00
00
ff
00
ff
01
ff
01
00
ff
00
ff
00
00
00
00
ff
ff
ff
00
00
01
01
fe
ff
ff
00
ff
ff
00
00
00
00
ff
ff
ff
ff
00
ff
00
00
00
00
01
00
01
00
ff
ff
00
02
00
00
01
ff
00
00
ff
01
ff
00
00
00
ff
ff
00
00
01
01
00
00
ff
ff
00
00
00
00
00
00
00
00
ff
00
00
ff
ff
ff
01
01
ff
00
00
01
00
00
01
ff
00
ff
00
ff
01
00
00
00
00
00
ff
00
01
fe
ff
00
01
00
ff
00
01
ff
01
00
00
00
01
00
01
ff
00
00
00
00
ff
00
ff
00
ff
00
00
ff
00
ff
00
ff
00
ff
ff
01
ff
00
00
01
ff
ff
ff
ff
01
ff
00
01
00
00
ff
01
00
ff
ff
00
00
00
00
00
00
ff
00
ff
ff
00
ff
00
ff
ff
00
ff
01
00
ff
ff
01
00
ff
ff
00
01
00
ff
00
00
ff
01
00
ff
00
01
ff
00
00
00
00
ff
ff
00
00
01
01
ff
ff
ff
ff
00
00
ff
ff
ff
00
01
ff
00
00
00
01
00
00
ff
01
01
02
00
00
00
ff
00
00
fe
00
01
ff
01
00
ff
00
01
00
00
00
ff
01
00
fa
ec
fc
01
ee
04
ff
09
fc
ee
fa
fb
08
fe
f6
fa
07
01
f5
fa
fb
00
f4
ff
fb
fc
03
04
f6
fe
03
ec
f2
fc
f6
fe
fc
ff
e7
01
0e
01
f3
fd
07
ff
ff
06
f3
fe
f9
07
fb
da
f1
ff
ff
04
ff
f5
0b
f6
01
fa
08
f2
ec
00
ec
02
06
04
06
10
fa
f8
01
fc
df
ef
03
ef
01
e7
fd
fe
fb
01
01
fe
03
03
0b
00
f3
fe
e2
fb
06
08
f3
d2
ff
03
f2
01
f4
00
03
d7
06
05
04
fe
0a
06
00
fb
02
dd
01
0d
f8
00
f3
09
e9
07
ec
e2
fd
fd
fb
f8
f9
04
01
03
f8
ff
fb
ff
ff
08
f8
07
02
e2
01
03
01
fe
00
de
f2
f3
04
f7
02
f3
06
f9
fd
f7
fd
00
a4
fe
fe
fb
00
05
db
f2
f3
d2
ed
08
fe
f4
ff
f4
e7
00
fd
fa
f0
02
00
f8
fe
03
02
01
06
03
fb
00
09
fe
fe
de
f3
f4
ef
fe
00
08
d6
f1
02
fd
f2
0e
0d
f7
02
03
d3
ee
fd
f6
ff
f7
03
cb
00
fb
f6
aa
05
f0
fc
eb
f0
00
f0
ff
ff
ff
01
08
ed
00
00
fe
e2
f2
dd
db
f7
da
fc
f5
02
f5
fc
04
08
f5
22
fc
00
01
f5
0a
ff
f2
02
a8
e9
f5
e8
f4
00
01
fd
f3
ff
fe
fd
f6
01
c6
0f
05
14
00
04
03
05
fb
fb
0c
f7
e1
f0
02
e9
d5
00
00
00
00
ff
ff
ff
ff
ff
ff
00
00
ff
ff
00
00
00
00
00
ff
00
00
01
00
fe
01
00
fe
00
ff
00
01
00
00
00
01
ff
00
00
ff
00
ff
01
00
ff
00
00
ff
00
00
01
00
00
ff
00
01
00
00
00
ff
ff
01
ff
00
02
00
00
00
00
01
00
00
00
ff
00
00
00
00
ff
01
00
01
fe
01
00
ff
01
00
01
00
01
ff
00
ff
ff
00
01
ff
00
02
00
ff
00
ff
00
ff
00
00
ff
00
01
00
ff
00
01
00
00
ff
00
ff
fe
ff
01
00
ff
01
01
01
00
01
00
ff
ff
02
ff
00
ff
ff
ff
fe
01
ff
00
01
01
01
00
01
01
00
ff
00
ff
ff
00
00
00
01
00
00
01
ff
fe
00
ff
00
01
00
00
00
00
00
01
ff
01
00
ff
00
00
00
ff
00
00
00
01
00
ff
01
01
ff
00
00
00
ff
00
00
01
ff
ff
ff
00
01
00
01
00
00
00
fe
01
01
01
00
00
01
01
00
00
ff
01
01
ff
00
00
00
00
02
01
00
ff
00
01
ff
ff
ff
01
00
00
00
ff
00
01
02
01
ff
00
00
02
01
00
00
01
01
ff
00
ff
00
00
00
00
00
00
ff
00
ff
ff
ff
00
00
00
00
00
00
00
ff
ff
00
00
00
01
ff
01
01
ff
00
00
00
01
00
01
ff
ff
ff
00
00
00
ff
00
00
00
00
ff
03
fc
02
07
05
02
02
fd
fd
06
00
01
07
05
fc
04
fc
fd
01
00
01
fa
00
ff
01
03
01
01
fe
06
01
02
03
fe
ff
00
00
02
00
06
03
01
fa
ff
03
06
05
ff
00
fb
00
07
01
08
01
ff
02
13
01
00
f9
fb
12
00
0e
fd
fd
ff
04
ff
fe
05
01
00
fe
07
06
07
03
01
08
00
ff
05
00
02
fe
04
ff
04
03
07
01
00
fd
00
03
0d
03
fb
ff
01
ff
04
04
05
02
fe
06
02
0e
ff
fd
03
fd
ff
00
fc
01
fc
0b
03
06
05
04
fe
02
ff
05
fe
02
00
01
08
05
02
03
02
fd
02
02
ff
01
01
01
00
06
ff
04
00
04
02
02
00
01
05
01
00
09
03
fe
01
05
01
fd
02
01
ff
01
06
00
fe
09
0a
03
0a
fd
ff
03
ff
fe
02
fd
01
ff
01
01
fd
09
02
03
00
fd
07
03
f9
01
05
fb
04
07
07
01
fd
f8
fc
f7
00
01
00
fd
0b
fc
02
05
02
02
05
00
04
fc
ff
03
08
09
05
03
02
02
01
0d
02
04
02
00
02
fa
01
fe
00
fe
fe
fd
ff
ff
01
08
02
02
03
00
ff
04
fc
ff
01
00
00
06
ff
04
09
03
00
fd
03
0b
03
03
0a
00
fd
01
06
00
fd
05
09
00
06
02
fd
01
01
05
07
fe
01
00
fe
00
03
09
09
ff
11
02
00
07
fc
fc
fe
ff
fc
fc
00
01
01
00
fa
00
ff
fd
00
01
02
ff
00
00
00
ff
00
ff
ff
fd
02
00
00
00
00
fd
01
ff
00
00
02
ff
fd
00
fe
01
ff
00
00
00
ff
00
00
fe
01
ff
fe
fe
fd
01
fd
fe
00
00
fe
ff
00
ff
ff
00
ff
00
00
02
01
fe
ff
fe
00
ff
ff
ff
00
00
ff
fe
02
fe
01
ff
ff
00
fe
ff
00
00
fe
00
ff
00
00
00
fe
fe
ff
00
00
ff
01
00
fe
00
01
00
00
00
01
ff
ff
00
01
00
ff
ff
00
ff
02
ff
ff
00
ff
01
fc
ff
00
ff
00
fe
00
01
ff
01
00
ff
00
00
00
01
ff
01
ff
ff
00
00
01
01
00
fe
00
ff
01
02
01
ff
fe
00
ff
00
ff
ff
ff
ff
00
ff
00
01
00
fd
00
00
ff
00
00
ff
01
ff
00
00
fe
ff
00
00
00
01
ff
00
fe
00
00
01
00
ff
00
01
ff
00
01
fd
00
00
ff
00
00
00
00
ff
00
ff
00
00
00
01
ff
00
00
ff
ff
00
fd
ff
ff
ff
01
fe
00
fd
01
ff
00
00
01
ff
fe
01
00
01
00
ff
01
00
00
fd
fe
ff
ff
ff
ff
ff
00
fd
00
00
01
ff
00
00
02
00
fd
01
00
00
00
00
01
ff
00
00
00
ff
ff
ff
ff
01
00
01
01
00
fe
01
ff
00
02
ff
ff
00
02
00
02
00
fd
00
01
00
02
05
fc
f9
fe
0a
01
00
06
01
f2
fe
07
05
1b
02
02
fd
12
05
0a
00
11
1c
00
18
fe
f8
02
09
fc
05
09
f8
f6
ff
fd
00
02
fe
11
02
f7
06
08
01
03
08
ff
ff
f9
02
ff
fd
0d
fd
0a
03
07
ff
0c
01
03
10
09
0a
03
00
08
00
04
fc
fc
07
f3
07
06
05
08
02
01
fe
00
fc
13
07
07
02
fa
ff
00
fd
0c
ff
01
00
fd
00
03
ff
00
fd
02
fd
11
fc
03
07
ff
06
f9
ff
00
02
01
02
01
fd
ff
10
ff
0f
0d
ff
01
0b
0b
ff
0a
0a
00
00
fe
0c
03
01
fe
02
15
00
0e
07
01
fc
06
01
fc
0d
fe
fd
ff
04
ff
ea
ff
04
ff
0c
fc
fc
0e
02
fb
09
fe
04
0c
f7
fb
f7
0a
06
f8
0e
fc
0a
0f
05
01
08
02
0d
0f
05
14
fe
f8
00
f9
18
01
03
02
07
fd
01
fd
fe
fe
fe
f9
16
13
03
03
f8
12
02
0f
eb
00
01
08
fb
fb
12
03
fd
16
0c
fe
fd
fc
09
09
eb
f6
fe
fe
16
02
0a
02
0c
f7
00
0b
0d
fc
04
0a
fb
0f
07
fa
08
1f
17
e9
fd
01
1a
08
01
01
00
03
02
09
f9
09
fe
03
00
fd
ff
00
1c
01
14
1a
09
08
15
09
02
fc
17
04
fe
08
06
ed
07
f8
0e
02
ff
00
01
ff
fb
fb
09
0f
19
04
04
02
09
00
00
00
00
00
00
ff
00
00
01
00
00
00
00
00
ff
00
00
00
00
00
00
00
00
00
01
00
00
00
00
01
00
01
ff
00
00
00
01
00
00
00
ff
ff
00
00
00
00
ff
ff
ff
ff
00
ff
ff
00
ff
ff
ff
01
01
fe
00
02
00
01
01
ff
00
01
00
00
01
ff
00
00
00
00
00
ff
00
ff
00
00
ff
00
01
01
00
01
00
00
00
01
00
00
00
01
00
01
00
01
ff
00
ff
01
00
ff
00
ff
00
00
ff
01
01
00
ff
00
00
ff
ff
00
00
ff
00
ff
00
01
ff
ff
ff
ff
00
00
01
00
01
ff
00
00
ff
00
00
00
ff
00
00
00
00
ff
00
ff
00
ff
00
ff
ff
00
00
00
00
ff
00
01
00
00
00
ff
00
00
00
00
01
00
01
00
00
01
00
00
00
00
00
00
ff
00
00
00
00
00
00
00
00
00
00
00
00
01
00
01
00
00
01
ff
00
01
00
01
ff
ff
00
ff
01
00
00
01
ff
00
00
00
ff
00
00
ff
00
00
01
ff
00
00
00
01
00
00
00
00
01
ff
00
ff
00
00
00
00
ff
00
00
00
ff
00
00
ff
01
00
00
00
00
00
00
ff
00
00
01
00
00
00
00
00
ff
00
00
01
00
00
ff
01
00
00
01
00
ff
00
01
01
01
00
00
00
01
ff
ff
00
00
00
00
00
ff
ff
00
00
00
f4
f2
fc
ff
f8
f3
09
06
00
0f
fe
ff
f7
f8
01
06
07
ff
02
03
f5
fd
00
ef
01
f0
f2
02
0a
03
03
1d
0a
fe
00
0b
ff
fa
09
04
ff
f9
0d
ff
e7
01
f7
0a
fc
ff
02
f9
02
0b
11
fa
06
fe
f2
f4
fc
07
06
f9
fc
05
ff
00
01
02
f6
fd
ff
fc
e4
01
0b
00
03
12
04
fc
01
f9
fa
01
00
ff
f6
ff
07
fd
06
04
00
00
0c
fe
06
f7
de
03
fb
ff
02
fc
ed
03
d7
ec
f4
ff
ff
f9
0e
04
05
01
fe
05
fa
0b
f5
ff
f0
f5
f5
0f
22
11
ff
08
02
ec
fe
ed
fe
01
f3
fc
fe
01
01
fd
fe
02
ff
0f
01
01
01
f4
ff
00
00
f4
ff
fc
fe
fb
0b
04
03
00
00
fd
04
ff
05
00
f1
e4
00
0a
0f
ff
ee
00
ff
08
fa
f4
ff
01
06
ff
02
08
02
10
03
02
03
0c
04
02
ff
02
f7
fe
fb
06
13
14
fe
01
06
ff
01
f8
06
03
02
02
0a
0c
fe
03
fc
04
fe
06
03
05
ef
10
fc
00
fe
13
07
fe
03
fb
fa
02
ff
06
00
fd
08
f8
ff
fb
ff
fe
03
14
00
03
ef
0c
01
f7
ff
1e
00
03
07
f7
29
02
fc
fe
08
fd
fc
1b
f8
02
1c
06
04
f7
fe
00
02
0f
f5
fe
fc
fc
fe
fb
0b
0c
fb
f8
07
00
00
01
fa
0a
12
fd
f8
01
01
01
01
ff
00
00
ff
00
01
00
00
ff
00
00
ff
ff
02
00
01
ff
00
00
00
00
ff
ff
00
00
00
00
ff
00
00
ff
00
01
00
00
00
01
ff
00
00
ff
ff
00
00
ff
01
01
01
00
00
00
ff
00
01
00
ff
00
01
ff
00
ff
ff
00
00
00
00
01
00
ff
00
00
00
ff
00
00
ff
00
ff
01
01
ff
01
01
00
ff
00
00
00
00
01
00
ff
00
00
ff
ff
00
ff
ff
ff
00
00
ff
00
01
ff
00
00
00
01
00
ff
00
00
00
00
01
ff
00
00
00
00
ff
00
01
00
ff
00
01
00
01
00
ff
00
00
00
00
00
01
00
00
00
ff
00
ff
fe
00
00
01
ff
ff
ff
00
ff
01
ff
00
ff
00
ff
ff
00
00
00
ff
00
00
ff
00
ff
00
ff
ff
01
01
00
ff
ff
01
ff
00
00
00
ff
01
ff
ff
00
00
00
00
ff
00
01
01
ff
ff
ff
00
ff
ff
00
00
00
00
01
ff
ff
00
01
00
00
00
00
ff
ff
01
ff
ff
00
00
00
00
01
01
00
00
ff
00
00
01
00
ff
00
ff
01
01
ff
00
00
fe
00
00
01
ff
00
01
00
01
ff
00
ff
00
ff
ff
00
00
00
ff
ff
ff
00
ff
ff
00
00
00
00
00
00
ff
ff
00
01
01
00
00
00
00
00
ff
00
00
ff
ff
00
00
ff
ff
00
00
00
ff
ff
00
00
ff
02
01
11
17
01
00
18
05
03
fc
fe
0e
17
fe
f6
ff
ea
01
ff
03
06
01
f9
01
f4
e8
fe
00
fc
e3
0c
02
fd
09
f4
02
f2
ff
f9
01
06
fe
e9
f4
12
fa
e2
01
00
fe
ff
03
f3
00
08
11
14
05
04
e9
06
fc
f1
15
fe
fa
e0
fb
fe
ff
03
01
03
ff
fa
fa
de
01
f0
fd
17
f7
fe
0a
ff
1f
e9
05
0f
fe
04
ff
fc
07
e5
fb
ee
00
0c
ff
ff
f4
da
04
02
01
e2
ff
f8
fb
d6
fb
f5
f3
01
ff
ec
fe
ff
03
01
18
f8
fa
f8
f9
fb
fd
05
ee
0d
f7
ff
f4
03
02
03
06
03
02
e9
fb
f2
fb
fd
ef
f9
ef
02
f4
01
01
ff
07
00
23
f2
02
fa
e5
03
06
ee
05
f8
ef
fe
fd
11
fb
08
eb
fb
e4
13
10
e3
05
ef
eb
fe
08
00
04
ff
01
f0
fa
01
fe
e5
ec
00
ff
fc
08
f9
fa
05
ff
f6
fb
ff
f5
e6
0a
ff
fb
e8
f9
17
02
00
01
01
ef
fb
0a
ff
01
02
0a
ff
fa
02
ed
f4
fc
ff
07
f1
16
00
0d
fd
03
f8
04
0d
09
01
06
fe
e8
0d
01
01
0b
09
0a
14
13
f5
10
fa
0c
03
06
01
ff
f6
02
a9
ff
f7
02
07
ef
ff
f1
f0
08
fc
04
08
f3
f3
00
04
05
04
fe
de
e6
01
16
f6
f2
f1
04
f3
fb
ff
fd
e8
ef
ef
07
06
04
07
16
fe
00
00
ff
01
00
01
00
00
00
ff
00
00
01
fe
00
00
01
00
00
01
ff
ff
00
01
ff
01
00
00
00
02
00
ff
00
ff
01
01
00
ff
00
00
ff
01
00
00
ff
00
00
00
00
00
00
00
fe
00
ff
ff
00
01
00
00
00
00
00
ff
01
01
00
00
01
00
00
00
ff
00
01
01
ff
00
00
00
00
00
ff
01
00
00
01
ff
01
ff
00
00
01
ff
ff
00
ff
00
00
00
01
00
ff
00
00
01
00
00
ff
ff
ff
00
ff
01
00
ff
fe
00
00
00
01
00
00
00
01
ff
00
00
00
00
ff
ff
00
ff
02
00
01
00
fe
ff
00
00
00
01
00
00
00
ff
ff
00
01
ff
01
01
00
fe
00
ff
01
01
00
00
01
00
00
ff
01
00
ff
01
00
ff
00
00
ff
ff
00
00
00
ff
00
00
00
00
ff
00
ff
01
ff
ff
01
00
00
00
00
00
01
01
00
00
00
00
ff
00
00
00
ff
ff
00
01
01
00
00
00
00
00
01
00
00
00
00
00
02
00
ff
ff
ff
00
fe
00
01
ff
ff
ff
01
00
00
00
00
ff
00
01
01
00
ff
00
ff
ff
01
ff
00
00
ff
00
00
01
ff
02
00
00
ff
01
01
ff
00
00
01
00
ff
01
ff
00
ff
00
00
ff
00
00
00
01
00
00
00
00
01
00
00
01
00
ff
02
00
01
00
ff
00
ff
00
ff
00
fa
04
03
fd
02
00
02
fe
05
ff
00
07
01
04
f7
f5
02
0c
04
01
00
02
01
fc
03
02
09
00
ff
fd
f7
0a
02
01
ff
03
01
f9
fc
0a
ff
03
00
f6
fb
f4
0d
fd
fc
00
09
f2
07
f6
fe
f5
09
f0
03
09
fa
fe
ec
0d
f1
05
fd
ff
ff
ff
01
f3
05
f0
06
08
ff
02
0a
fd
f4
00
f5
02
06
fa
01
fa
04
fe
05
07
ff
ff
01
08
fe
06
11
e6
ef
ef
01
ff
fb
04
fb
f4
ea
f6
08
05
00
03
00
fd
ff
04
ff
fd
fe
04
0c
02
00
ff
07
f6
07
02
01
04
ff
fe
02
00
02
ff
fd
04
fe
ff
fe
04
02
00
08
00
ff
ff
04
fe
fe
fe
05
04
ff
00
02
09
05
01
04
f8
ff
fc
f2
03
ff
01
f1
04
f9
0a
e9
f0
03
03
fd
ff
fb
07
ff
fe
01
07
fe
03
07
fd
02
f9
f9
01
f9
fd
fc
04
fe
0e
fe
02
f7
f9
05
03
fc
03
fb
fd
02
f2
ff
fb
f3
00
fe
f8
f4
00
00
02
0c
09
e2
0a
f4
09
e4
fd
f7
ff
ff
02
00
ed
f2
fd
02
02
03
01
08
00
03
ed
04
fc
01
f5
fd
00
fc
04
f6
00
00
03
f4
fd
03
05
00
fc
00
fe
09
06
eb
ff
fc
04
07
08
00
fe
00
ef
fb
09
06
0a
f9
fe
05
0e
03
05
fe
00
04
0a
01
06
f5
f9
00
04
03
fb
f9
04
ff
07
f4
04
04
fa
09
05
fe
fc
fe
f4
0e
fa
01
fd
01
ef
ff
0b
f3
00
f3
fa
08
05
fc
fa
0f
ff
ff
f1
02
f2
fe
0b
00
ff
dd
05
05
10
00
ef
06
fd
ed
00
fe
fc
05
0a
03
04
06
f0
d8
fd
0a
02
e2
00
f3
fa
ff
03
05
00
ff
fd
fd
0c
03
d8
fa
08
01
04
01
01
1b
fb
08
08
02
06
03
00
fb
06
02
04
04
06
fe
f6
ec
14
11
0c
ff
f6
fc
cf
00
12
15
ef
ee
06
fd
03
03
01
03
fc
0c
07
01
f1
0c
cf
f6
ed
fc
15
0a
fc
fa
01
ec
00
04
fb
03
f2
fd
ff
f6
01
05
00
0d
ff
00
00
00
01
eb
00
22
05
df
01
fe
ff
12
09
03
fb
16
06
fd
11
02
0a
fc
fb
15
f6
0e
f0
17
04
01
00
06
02
f1
f6
ff
05
f9
ee
e9
fe
0d
fb
fe
fd
0e
f3
fc
01
02
f7
00
ff
1c
0a
09
0a
03
02
02
fc
f2
02
01
07
f8
08
fe
01
02
02
06
fd
f8
00
0c
f7
fb
fd
10
06
17
03
fb
01
ec
05
02
06
fe
fe
fd
09
04
00
00
ff
00
22
11
29
07
ff
11
fd
0c
fe
1c
fb
00
09
f5
de
f5
f2
00
fe
0d
fc
18
fc
2a
15
04
fa
f5
f0
03
01
0c
f1
fd
fd
ef
03
1f
00
08
f0
0a
02
ff
fc
06
fe
04
fe
1d
f4
02
fb
0a
23
23
04
fd
17
13
fe
f9
ff
19
16
ff
02
09
fa
04
f0
03
05
06
fd
06
f1
f8
02
11
f9
fd
01
f8
00
17
f8
fc
f7
0b
fc
01
1b
05
f1
ff
18
f8
fe
01
f5
f9
00
fa
df
f9
0a
17
11
fe
01
06
06
05
f1
07
fd
11
e9
06
fe
fe
fa
00
02
f5
fa
fc
fd
fc
ec
fb
08
f1
fd
24
02
1d
ea
06
ff
02
f6
04
06
07
eb
f9
e2
01
1c
fd
f5
04
0d
11
01
01
f7
f5
03
fb
05
09
00
f5
06
00
e2
fc
fe
04
01
fb
06
cf
ee
02
05
f3
05
d6
fb
e7
00
07
04
0c
fc
f1
fe
01
f7
02
e9
f4
ff
f5
fd
fd
01
f2
01
ff
01
03
05
10
dd
01
05
ee
02
d0
f2
fe
fb
01
ff
03
f5
fc
05
ff
e8
02
0d
13
fb
f0
fe
f4
fa
01
ff
fe
e5
ff
f1
fb
f4
ff
f9
02
fa
fe
f8
05
fa
fb
01
04
fe
05
05
ea
01
fd
00
fc
ff
00
05
f6
00
01
f4
f5
f4
fa
fc
ff
ea
f3
ff
02
fb
eb
f2
e6
08
00
f9
ef
01
fc
fc
f5
e6
ff
00
0c
08
03
07
02
f8
01
02
fa
de
07
0d
fb
06
fc
f5
0f
fd
ff
00
00
05
ee
b1
ff
ec
02
f7
ff
fe
ff
f7
f3
11
01
e9
ef
ef
fd
03
07
07
01
f9
f6
04
f5
fb
ff
ee
06
07
02
fc
de
f6
d7
eb
ea
f6
00
f6
05
19
05
05
03
07
1b
fe
fa
05
fd
15
00
03
11
fd
fc
f5
09
fb
fd
01
09
ff
f4
02
0a
01
07
02
fc
fd
0d
fc
05
07
06
fc
06
04
02
f4
11
02
07
06
01
f9
ff
02
fc
eb
07
15
00
03
00
f1
01
05
05
ec
0a
fe
1e
f6
06
fd
00
fc
fd
07
e9
00
f8
00
04
fd
fd
0e
f3
f9
14
ff
0a
ef
00
06
03
f2
00
ff
fd
03
ff
eb
ff
fe
fd
f7
eb
04
02
0c
ff
fa
fe
0c
03
03
01
03
01
ff
00
0a
00
00
fe
01
f4
09
1b
fe
fd
10
04
f8
1a
eb
00
00
01
fc
00
00
03
00
fc
f3
01
eb
04
fd
fb
03
ff
01
fe
00
ff
01
0a
ff
11
eb
fa
fe
f2
00
04
ec
ff
fc
11
08
02
0a
02
f1
00
04
08
01
fb
09
0e
09
fa
fe
fd
00
f9
f5
fd
f7
fe
02
02
fe
07
04
fa
ec
0a
01
fc
00
fe
03
03
07
0a
1b
ee
fc
01
fb
02
0f
f5
02
fc
0a
ec
f0
05
01
fe
0a
02
03
04
03
f9
ef
02
0a
fe
fd
03
fa
ea
02
f3
eb
00
09
02
00
fe
09
fe
f5
00
00
0b
09
17
12
01
01
07
ff
20
06
f1
fd
fa
05
f9
ff
fe
f8
05
e2
00
fb
0e
fc
00
2b
06
ff
fe
0a
00
ff
13
f9
fd
0e
fd
00
09
f6
01
eb
fa
03
fc
01
07
f6
1a
12
fe
e0
03
fb
08
1c
0a
02
08
02
03
03
f8
fe
fd
16
fb
08
fb
0c
fe
f8
06
f2
06
06
01
f4
02
00
08
f5
0a
03
04
00
0b
fc
05
04
06
03
02
0a
01
08
0b
fe
01
01
03
10
04
f7
0b
ef
05
06
f9
ee
fb
fd
07
f5
06
03
ff
ff
00
02
fd
07
fd
f9
fc
02
0a
ff
06
01
02
00
ff
0b
f3
fb
11
01
0c
08
02
01
00
0a
00
04
fb
03
ff
f3
03
fc
fe
f0
0a
01
02
00
04
05
f4
0b
f4
02
08
fa
f8
02
00
0e
04
00
02
02
01
f5
13
08
fa
0a
01
0d
13
f5
02
fe
09
01
f5
fd
0d
fe
ff
f7
04
fb
f7
fa
08
fb
f7
01
02
fe
fb
ff
0b
fc
11
f4
06
03
04
04
0e
0a
00
f2
01
11
fc
fc
fd
f0
02
07
00
06
eb
f7
07
00
00
00
fc
01
04
07
ff
00
fc
f2
0b
06
f0
03
04
f3
f6
06
00
00
fb
05
02
08
18
ec
f8
01
f8
03
05
09
04
00
ff
e9
0c
e8
fc
fe
fe
ff
01
ff
07
01
0a
0b
fb
04
07
f3
04
fe
eb
ff
00
f1
fc
03
ff
fa
06
fb
f6
ff
f9
03
04
05
ee
18
07
07
04
f2
fd
01
03
00
ff
f2
06
39
06
ed
02
f3
f6
f8
ee
03
fc
ed
06
07
06
0b
ff
02
e9
fd
ff
0f
ff
02
f0
e9
f2
f7
05
ef
00
fe
ff
01
12
ee
eb
f2
01
03
ef
03
01
03
00
02
04
00
02
fd
01
04
ff
00
00
fe
02
ff
02
00
01
fe
01
fe
01
00
02
01
00
fe
ff
03
03
fc
fe
fd
03
fe
00
01
01
ff
03
01
fd
05
00
ff
00
fd
fe
fb
00
03
02
01
01
01
00
ff
02
00
05
ff
01
01
01
01
ff
00
fe
fe
00
02
02
01
01
01
fe
03
fb
ff
04
ff
08
ff
ff
06
ff
02
01
01
03
ff
ff
00
ff
02
ff
00
03
03
02
01
ff
fe
00
03
02
04
03
01
ff
fe
00
fd
fe
01
fe
02
ff
ff
fe
00
01
03
00
01
fb
02
fe
ff
fe
fd
00
00
01
02
ff
ff
fe
ff
02
00
ff
fe
fc
00
fe
01
00
00
00
01
05
00
01
ff
ff
01
fd
00
01
03
ff
07
01
00
03
00
ff
00
05
ff
00
fc
03
07
00
ff
02
01
01
01
00
01
00
ff
00
fe
ff
ff
ff
fe
ff
04
02
00
fe
ff
ff
02
03
01
00
00
00
01
ff
01
ff
01
ff
00
01
01
02
00
00
01
01
01
03
01
00
03
fe
ff
05
fb
01
fd
01
ff
00
fd
ff
01
03
00
00
00
fe
00
ff
00
02
02
01
05
fd
04
01
01
04
00
01
fc
ff
fd
00
03
fd
ff
ff
00
fc
01
fe
fe
02
00
ff
ff
00
03
00
01
02
04
00
03
ff
fd
fe
02
fd
01
ff
fd
00
00
01
fe
ff
01
01
02
00
ff
01
ff
01
01
01
00
ff
00
00
02
02
01
01
ff
ff
ff
01
02
ff
01
ff
01
00
02
01
00
00
00
ff
01
01
fd
01
02
00
02
02
01
00
00
00
ff
ff
02
ff
00
fe
00
02
01
00
01
ff
01
02
01
ff
ff
ff
04
fe
00
00
ff
02
fe
04
02
ff
01
01
fe
01
01
00
00
ff
01
01
01
02
01
01
00
01
00
00
02
ff
ff
01
00
04
fe
01
05
fd
03
ff
02
01
00
02
ff
00
00
02
00
02
fe
fe
03
03
00
fe
01
ff
ff
00
ff
00
ff
01
ff
03
01
01
00
00
00
02
00
03
01
01
00
00
fe
00
00
00
01
03
fe
04
00
00
00
03
01
ff
00
00
00
03
03
fe
ff
fe
01
03
00
00
04
00
02
02
02
02
00
03
02
00
02
01
02
01
00
02
fe
03
00
01
03
ff
00
ff
03
02
04
ff
02
00
ff
00
00
ff
00
02
00
01
03
00
fd
ff
01
02
02
01
02
fe
00
00
ff
02
00
03
01
00
02
02
00
02
01
ff
ff
fc
02
01
00
01
01
00
00
ff
02
00
01
03
00
02
ff
00
ff
ff
00
01
01
ff
02
03
fe
00
03
01
00
00
01
00
00
fd
00
00
fe
00
ff
02
02
fe
00
01
ff
02
02
00
fe
00
00
fe
04
fe
00
00
ff
ff
ff
00
ff
00
00
00
00
02
ff
02
02
01
fe
00
ff
05
10
0f
00
ff
08
18
ff
f0
fe
02
08
fd
ff
15
01
03
03
ff
03
01
01
0e
00
f6
00
0f
01
03
01
00
01
17
09
fa
fe
04
00
09
0e
fe
f6
f8
03
f9
0b
00
f8
04
fa
03
04
ff
0e
01
08
fe
fb
00
fc
08
04
0c
01
01
fc
fd
08
ff
04
ff
fd
05
ff
fa
05
03
01
fe
13
11
f9
0f
00
1d
fc
fc
11
fd
04
fb
01
fd
fc
01
02
01
fc
fc
03
00
0b
00
06
05
ff
02
07
ff
01
03
f9
02
f7
00
f9
03
06
fa
ff
17
08
ff
02
ff
08
00
0b
fd
0f
0d
ff
0a
02
18
fb
00
fd
ff
f9
ff
08
01
ff
03
02
0a
00
09
00
00
01
0b
01
1b
02
09
05
fe
02
02
03
03
fd
f9
04
03
0d
fd
00
04
fa
08
01
03
0d
03
23
08
01
04
05
08
0e
00
fc
00
03
02
04
fb
fc
fd
f9
0b
0a
03
fb
f8
02
fe
f3
14
00
ff
fb
fe
03
00
16
06
06
04
f9
fd
f5
07
02
ff
02
01
04
03
01
00
08
19
f1
03
06
11
fc
07
00
0e
0a
ff
0a
14
ff
f5
03
03
0f
01
02
08
11
0f
21
06
fb
2e
04
19
ff
08
fe
00
02
06
a2
ff
01
fe
fb
05
01
04
00
07
11
01
08
06
01
ff
07
06
05
fd
fc
07
fa
0a
fe
06
fc
07
00
01
fd
03
05
f8
ff
05
03
03
07
0f
02
03
fc
ff
06
00
01
03
04
06
03
02
02
01
fb
07
02
02
07
fa
fc
fe
07
00
01
00
fe
06
03
fc
01
07
03
fb
fb
fd
02
00
09
fe
fe
f7
07
06
f1
fd
02
fa
07
03
0c
03
04
16
09
fa
03
04
0d
f8
ff
f5
05
08
03
06
12
03
08
01
fd
fc
f8
01
f6
ff
f8
01
f8
04
02
04
ff
f0
f9
02
fb
01
f2
03
f9
fa
ff
00
0a
fd
12
f8
00
0c
f4
08
00
ff
f9
00
00
01
ee
01
02
02
00
fe
08
01
01
fb
fd
fb
01
05
02
06
00
fb
12
04
fa
07
fe
07
04
ff
07
f6
fa
03
03
04
00
05
ff
fd
03
ff
00
09
01
fd
01
01
fd
07
09
0d
02
fc
00
f8
fc
00
fe
f7
f3
03
fd
fa
fd
00
f9
f1
12
0a
02
fe
0b
fe
fe
0d
01
0b
08
ff
fd
fd
02
04
03
f7
07
01
05
fb
f6
00
fd
05
01
04
04
f8
f9
fe
ff
04
07
00
0c
07
00
00
01
fc
fe
01
00
01
04
f9
fb
01
00
00
08
07
05
f6
03
fa
03
ff
00
0a
06
ff
fd
08
fe
03
fe
04
fe
fe
01
fc
fe
ef
07
fd
04
f8
02
ff
02
fd
ff
ff
fe
06
05
ff
fc
02
00
fe
fe
f9
fc
fd
fb
09
05
03
ff
ff
fd
f1
09
ff
09
06
06
f9
05
fd
06
fb
00
fe
00
f9
ff
05
0d
ed
02
ff
01
fc
00
00
ff
00
00
00
ff
01
00
01
00
00
00
ff
ff
ff
00
00
00
ff
00
00
00
ff
00
02
ff
01
ff
00
ff
00
01
ff
02
02
00
ff
01
ff
00
00
00
00
00
00
ff
00
00
00
01
00
01
00
00
01
00
00
00
ff
ff
00
ff
ff
01
00
00
ff
01
00
ff
00
00
00
ff
01
ff
00
01
00
00
00
01
ff
00
00
ff
00
ff
00
00
00
00
ff
ff
ff
ff
00
00
00
01
02
01
ff
00
00
01
ff
ff
01
ff
00
01
ff
ff
01
00
00
00
00
01
00
ff
ff
ff
01
00
00
01
01
00
ff
00
00
00
00
00
01
00
00
01
00
00
00
ff
01
ff
01
00
00
00
00
ff
01
00
00
00
ff
ff
00
00
00
00
00
ff
00
02
ff
ff
ff
00
ff
00
01
ff
01
00
00
00
00
00
01
fe
00
01
ff
02
00
ff
fe
00
00
01
01
ff
02
ff
00
00
00
01
00
ff
01
ff
01
01
00
fe
01
ff
00
01
01
00
00
00
00
00
00
00
00
ff
00
00
ff
ff
ff
01
ff
ff
ff
01
ff
01
00
01
00
ff
00
ff
00
00
00
00
ff
00
00
00
00
01
00
00
00
00
00
01
01
00
00
ff
00
00
00
00
01
00
00
00
00
01
00
00
00
ff
00
00
01
00
ff
00
01
ff
01
01
01
00
00
00
00
00
00
00
00
00
01
01
ff
00
01
d7
cc
05
01
ef
fe
05
fe
05
02
eb
fe
08
11
f8
ff
fe
fe
01
f8
00
04
00
f0
02
d7
fe
03
04
fd
fd
d4
01
ff
05
f8
f6
04
d5
fa
07
05
01
ff
ef
00
0a
03
fa
0d
07
13
eb
00
f9
06
f5
f5
05
ff
07
fc
00
fd
05
03
fc
00
05
fe
00
f2
00
05
ef
fd
0e
f8
ff
0a
ff
ef
01
fa
e7
ff
fd
fb
f5
fe
fd
fe
12
fc
09
02
01
01
05
e9
f5
ff
05
01
fe
ff
fe
06
fa
fe
04
05
ff
01
ff
fc
00
ff
01
05
ee
f9
f3
ff
ff
ff
09
04
fa
0d
ff
f0
07
d9
01
fa
08
fd
f4
07
01
06
04
fd
f5
01
02
0b
ff
fd
00
f4
ff
ef
09
ff
fa
e7
02
00
ff
00
fd
f3
ee
ff
fe
01
fc
03
f4
f4
01
ef
0d
f3
03
fa
03
03
fd
04
01
02
06
ff
0f
0b
02
00
fd
02
e8
fa
01
fe
05
fd
11
01
04
fa
fe
fd
08
03
eb
fe
fd
f2
fe
05
f3
f6
fa
06
00
fc
fd
05
fa
fb
04
02
f8
f8
04
07
02
03
00
ef
04
00
09
fe
02
01
fa
fd
f4
fc
00
fe
fd
0a
1d
02
ec
08
00
21
02
04
fe
f2
06
03
05
f4
f1
ff
f9
01
ff
01
ff
01
f2
02
06
09
01
f7
0a
03
fe
00
f8
02
01
f1
fa
fc
fc
09
06
04
06
fe
02
f5
f7
fc
02
0a
e8
fe
ff
fc
ff
f7
f8
00
f2
02
ff
0b
fa
eb
fd
01
01
f9
07
01
09
fc
ec
03
fd
fe
09
01
fd
03
fc
05
fe
fc
01
fd
0b
f4
ff
02
08
fc
f5
04
04
09
e8
05
07
01
f6
f8
03
fd
0e
f9
04
ee
01
03
f6
04
ed
04
09
ee
03
ef
09
f8
06
01
0b
fe
fb
02
04
ff
fc
04
00
00
09
08
ff
fb
03
0a
08
06
fc
01
ff
02
03
fb
00
fe
13
ff
ed
05
08
10
fb
fe
f6
01
03
fb
06
03
05
ef
07
07
03
fd
1e
f9
fb
02
02
f6
f9
0b
0c
f8
03
09
f6
19
f5
06
00
fe
ff
f7
03
00
05
f7
f8
fe
09
04
02
04
02
fe
01
08
01
00
ff
0e
01
fd
1b
eb
ff
04
02
07
02
01
08
02
11
fc
00
f7
fe
04
05
08
03
fd
01
05
0c
04
fa
f5
fe
02
08
01
02
f9
01
fe
05
fc
03
fd
f6
f5
0b
09
00
f5
fd
ff
02
08
02
f4
07
fb
06
03
07
f9
fd
03
f5
09
ff
f8
02
02
fc
ff
fb
01
01
04
0d
f8
00
fe
00
04
00
04
ff
fc
15
02
fe
f7
00
0a
fd
fd
fb
fa
02
04
fb
f6
f6
fb
fa
f6
f9
01
04
f9
fc
ff
fa
f8
5d
06
01
00
f3
fc
fd
fe
05
0d
f9
ff
09
07
0a
fd
00
f4
fa
04
05
09
ff
f6
fb
fc
0a
02
fc
fd
01
03
03
10
01
e5
fd
00
f8
ff
00
00
00
00
00
ff
00
00
01
00
00
00
00
00
ff
00
00
00
fe
00
01
ff
00
00
ff
ff
00
00
ff
ff
00
00
00
00
01
ff
ff
00
01
ff
ff
00
ff
01
00
00
00
ff
ff
00
00
00
00
00
00
ff
fe
00
00
00
00
00
00
ff
ff
00
00
00
00
00
01
00
ff
00
00
01
ff
01
00
00
01
00
ff
00
01
ff
01
00
ff
02
fe
00
00
00
00
01
00
00
01
01
00
00
01
ff
01
ff
00
00
00
00
00
00
00
00
00
00
00
00
00
00
ff
01
00
ff
00
ff
ff
00
00
00
00
00
00
ff
01
ff
00
ff
01
01
01
fe
00
00
01
00
00
00
00
01
ff
00
01
00
00
01
00
ff
00
ff
00
ff
ff
00
00
ff
00
ff
00
fe
00
00
ff
01
00
ff
ff
00
ff
00
ff
ff
ff
ff
01
ff
00
00
00
02
00
00
00
01
00
ff
fe
01
00
ff
00
00
01
00
00
00
ff
01
00
00
01
00
00
ff
00
00
00
00
00
00
00
00
01
00
00
00
01
01
01
00
00
00
01
00
ff
01
01
00
00
00
00
00
ff
00
00
00
00
00
00
00
ff
01
00
ff
ff
00
ff
00
ff
01
01
00
ff
00
00
00
00
00
00
01
00
00
ff
01
ff
ff
00
00
ff
ff
00
02
00
00
00
01
00
00
ff
00
00
01
00
00
01
01
00
01
00
00
fc
f8
f9
02
03
07
fa
0c
00
01
fe
03
0d
0a
06
05
05
fa
00
fd
06
f2
fb
12
00
07
02
11
02
fc
02
f3
05
02
fa
fa
04
f8
f8
fe
0f
00
0d
fe
0a
00
fb
fe
08
fc
fc
10
f0
01
fa
01
01
10
06
fd
07
fe
00
f8
0f
f7
06
fe
fe
ff
01
fe
06
0d
12
f6
0a
0c
f4
08
ff
f3
01
e6
00
06
fc
00
f5
04
01
00
0f
fc
fc
02
03
07
fd
03
09
f6
f9
03
fe
ff
fc
03
0f
f1
0d
02
fe
02
ec
fe
ff
02
fe
fc
09
d2
06
04
fb
02
0f
de
f5
09
02
fd
00
06
02
07
ff
ff
0b
01
01
03
05
00
fd
ff
01
0b
02
00
fe
12
01
f4
fd
04
01
fa
00
02
06
fa
06
09
f2
ff
e6
fd
fc
02
0f
0b
00
fe
1b
04
ea
05
04
fd
03
05
04
00
01
03
fb
00
03
04
01
fd
02
ee
ff
06
fe
ff
0d
00
05
ef
15
fb
f0
fe
08
05
fb
08
fc
fb
f9
05
00
fb
06
03
fe
f5
fc
03
fe
0b
fb
07
06
fc
fe
e4
00
ff
05
05
06
fc
fa
02
07
fe
fb
11
fa
03
02
03
e2
df
f2
fa
00
e8
fc
07
01
fc
04
fd
01
fd
42
fd
01
fe
fe
00
02
f7
05
e9
02
fb
03
06
0e
fd
ff
f2
f9
04
12
01
fd
ed
01
00
06
ff
0c
04
fc
11
0b
dd
fc
e4
ff
ff
fe
e7
01
ff
01
01
00
00
01
01
01
00
ff
fe
00
00
00
01
ff
00
00
ff
01
ff
ff
00
ff
01
01
00
fe
01
ff
00
01
ff
00
01
02
ff
ff
01
ff
00
01
00
01
00
ff
01
00
01
01
ff
ff
00
fe
00
ff
01
00
fe
00
fe
ff
ff
ff
00
01
00
00
ff
00
ff
00
ff
ff
00
00
ff
01
02
ff
ff
00
fe
00
fe
ff
01
00
ff
ff
01
00
00
00
ff
01
00
00
ff
ff
00
ff
00
01
01
ff
01
ff
ff
01
ff
fe
00
00
00
00
00
00
01
00
00
00
01
00
01
ff
01
01
00
00
00
fe
01
00
01
00
00
00
00
00
00
01
00
01
02
00
00
00
ff
ff
01
ff
ff
01
00
ff
00
ff
01
ff
01
fe
01
ff
00
ff
ff
02
00
01
ff
ff
ff
00
ff
ff
ff
01
00
01
00
00
00
ff
01
01
00
02
00
01
ff
00
02
00
00
fe
ff
ff
00
01
00
00
ff
00
00
00
ff
00
01
01
fe
ff
ff
00
ff
01
ff
ff
ff
ff
00
01
01
ff
ff
00
ff
01
00
00
fe
00
00
00
00
ff
ff
00
01
01
00
ff
01
ff
ff
fe
00
ff
ff
ff
01
00
00
00
ff
fe
00
00
00
00
ff
00
01
00
01
00
01
01
ff
ff
01
01
00
ff
ff
ff
00
ff
01
fe
01
01
ff
00
01
ff
ff
01
ff
00
01
ff
01
00
00
ff
01
00
ff
f4
f0
f8
01
f2
fc
fe
0c
03
f0
ed
ff
09
fd
06
00
0d
f9
f4
fa
01
f7
04
0e
fe
05
ff
fe
05
08
ff
f7
0e
fd
fc
1a
fb
fb
f5
fc
0b
03
f3
01
fb
f9
00
fd
03
fb
08
01
f4
e7
fd
ff
16
04
0c
ff
11
0c
ff
08
0a
09
00
08
fd
07
ff
fa
0c
00
fb
03
ff
03
e8
08
00
ef
ff
ff
0d
03
fb
fe
f3
00
fe
03
05
02
04
01
ec
03
05
03
fd
11
fe
02
fe
fc
fc
00
01
01
02
04
fb
fe
17
ff
fe
0a
ff
fc
04
09
06
ff
fa
05
02
0c
0b
00
fc
f6
fd
05
fd
13
03
fc
0b
03
12
05
03
fb
05
06
01
01
00
00
02
fc
01
f0
05
00
08
02
fd
f3
08
00
04
1c
02
ff
eb
fa
0c
f8
10
fe
f5
f9
fb
0d
0a
01
fe
ef
ff
06
fe
05
0c
fd
ff
05
fd
fd
05
01
0e
09
01
fe
fe
fd
0e
04
f5
f5
02
0d
ff
fb
01
06
fa
fe
fd
fd
1e
fa
15
05
ff
02
0b
f6
01
12
00
09
06
fe
f8
01
05
02
03
fd
03
fd
06
ff
fe
04
01
02
04
03
03
fd
ff
f7
f7
fb
ef
f7
01
09
fc
f2
01
0b
ff
02
ff
02
06
04
f6
ff
06
0b
fd
fa
0b
eb
f9
04
fb
02
09
01
00
fc
0e
01
fc
fd
08
ef
04
ff
05
fb
fe
fe
fe
f7
04
0c
0d
f4
04
02
01
e7
f1
fa
fc
f9
00
0d
05
05
03
12
ee
ff
04
0f
0a
03
fe
fc
0d
ff
ff
02
0c
0b
ff
ff
f3
00
08
01
04
fd
07
f9
02
03
fd
fb
fd
00
10
09
08
04
f8
01
ff
03
f9
02
03
0b
02
0c
09
fd
fb
03
fd
0d
07
03
03
0c
02
0a
fd
02
0f
02
06
fd
00
0d
f7
01
0a
fb
fc
03
05
ff
ff
fc
00
01
fc
00
f5
fe
fc
f6
13
f9
0a
04
0e
01
0b
fa
f4
19
ff
fd
09
fc
09
03
ef
03
ff
06
ff
02
06
fc
00
04
fe
07
f8
02
f8
00
09
fd
0c
00
04
0c
fe
fe
03
ff
fe
f9
00
03
07
00
0c
03
02
fe
fe
00
fe
08
01
02
02
f3
fe
f4
0d
fc
fd
02
fd
01
01
00
f8
fb
05
02
00
07
fe
ff
fe
fa
ff
0b
03
fb
00
ff
02
f8
02
09
00
01
11
00
07
09
00
06
08
fe
fa
0d
fe
f7
fd
04
01
fd
f6
0b
07
f9
12
04
03
ff
ff
e6
fc
02
f8
fe
03
05
00
fe
f7
09
02
00
00
fe
fe
f3
f8
0c
fa
07
fd
02
03
01
ff
05
ff
0d
00
00
01
f5
08
fd
fb
00
0d
0a
eb
05
fe
1b
03
06
fa
f8
02
01
03
f4
09
02
fd
01
f8
05
03
0f
fc
07
0e
05
00
04
0d
01
01
06
fd
00
05
fe
f9
08
fd
0a
00
fa
fe
fd
05
01
f4
02
0e
09
01
04
02
03
fc
fa
02
ff
fa
08
04
04
01
fe
fe
01
06
0a
ff
03
02
03
fe
05
00
ff
fc
fe
ff
fd
fe
05
04
03
03
fe
03
fb
00
09
fa
00
fc
fe
08
05
ff
00
fe
02
f7
fe
02
f4
fd
04
06
00
06
02
fd
03
f8
04
03
09
00
f8
02
f8
05
02
08
ff
fe
fc
00
06
fe
fd
05
f8
00
02
00
04
00
ff
fc
01
01
01
ff
02
f9
ff
07
fc
fa
fb
fd
01
04
05
fb
fd
07
01
f9
ff
04
fe
ff
0a
07
03
03
03
ff
fc
fe
f8
03
00
fd
01
fd
fd
05
06
fd
ff
00
0a
fe
fe
02
f9
00
01
02
00
fa
fe
fb
09
00
04
fc
fd
02
06
00
00
02
f8
fe
03
ff
00
fe
fa
ff
03
03
00
01
07
fc
01
01
fd
fe
04
fe
fd
06
03
08
02
fa
02
ff
00
fc
fd
02
01
fe
fc
03
f8
07
fd
02
02
fd
fd
03
ff
02
ff
04
02
01
09
fd
fd
0a
f8
01
00
00
02
fd
03
01
f9
ff
01
fd
ff
ff
04
fb
05
f7
04
01
03
fc
ff
fd
02
02
05
02
03
00
00
03
fe
f7
f8
fc
ff
fe
ff
00
06
fe
02
06
02
04
01
fe
08
ff
ff
04
ff
fd
01
00
03
fc
01
fd
fd
ff
00
ff
08
fc
0c
03
ff
09
fd
00
ff
00
04
00
fc
fc
fb
fd
fc
00
ff
00
ff
fd
01
ff
00
fe
ff
01
ff
fb
05
27
16
fd
09
12
0a
fe
06
fe
f9
2c
00
ff
03
00
eb
fd
00
fa
09
03
f8
0a
05
00
11
03
02
fc
fe
02
12
02
08
fe
fb
01
f9
0a
01
fe
07
f7
08
0b
02
fd
fc
04
00
07
04
17
fa
0f
01
06
08
f7
08
fd
01
00
f0
fb
fb
02
03
00
01
fb
05
f8
0b
f8
00
02
ff
06
fc
03
1e
fe
1e
02
fe
06
01
08
00
02
f4
f7
02
09
00
f9
04
00
09
fe
fb
fe
ff
fb
00
10
05
fc
05
fa
00
03
fe
fd
fe
ff
fd
00
07
03
00
07
06
12
08
06
06
ff
fa
01
05
fb
06
01
0f
00
fb
fc
02
03
f9
ff
03
fd
fc
ff
02
fe
ff
ff
04
02
2c
0b
08
fb
00
02
ff
fc
03
07
0a
13
fd
06
08
04
02
10
0b
fd
03
f0
09
14
fe
06
fb
02
03
01
ff
05
fe
00
f4
fe
ed
00
00
06
f3
01
ff
fd
03
00
02
0b
00
fc
02
fc
01
fa
fc
04
11
ff
fd
00
04
f7
f6
ff
fb
ff
fd
fc
fd
03
fc
0f
fd
0b
00
fe
fa
00
05
09
0c
0c
fe
06
05
03
fd
fc
05
fe
02
00
fd
f5
ee
29
00
04
ef
f8
1a
04
07
fe
00
fb
fc
27
fe
fd
fe
03
fb
ff
f2
03
fd
f0
fc
01
00
05
fe
00
e7
03
03
07
00
01
02
fd
f8
fa
fb
00
03
00
01
09
01
ea
f3
fe
00
03
fd
b2
87
f4
01
b8
dd
00
08
03
fd
df
02
ed
bd
fb
01
07
fa
09
01
02
01
f3
dc
01
de
03
e9
03
02
fe
eb
01
03
07
03
fb
fe
d5
02
fa
02
fd
fe
f3
00
f5
fb
07
f8
ed
da
c8
00
ed
02
fd
f4
04
ff
01
08
fa
f7
fa
f8
fd
03
fc
00
02
ff
03
e6
d4
05
1a
06
01
f8
fc
bb
02
08
f0
00
04
00
04
ff
03
ff
f5
01
eb
fd
00
ff
0a
f9
f0
fa
f9
00
f9
08
02
07
ea
05
01
04
fd
05
18
02
01
01
fe
01
14
0f
fd
02
01
02
f6
06
04
07
01
f2
02
c7
00
f9
03
05
c9
ff
01
08
01
fe
09
08
03
f3
01
ff
01
f9
ff
d1
f6
06
fe
da
00
03
f7
fe
fc
03
fd
03
fd
f7
01
fc
fe
f5
01
e0
ff
1a
05
01
01
06
fd
fd
08
fe
f4
fd
0d
fa
fe
0a
01
02
f5
1b
ff
fa
fe
fe
de
00
ff
0d
11
01
00
fd
fc
fe
0a
0a
02
01
08
f3
08
10
04
fe
fd
0d
ff
02
ff
ee
04
1d
00
fe
03
0b
fd
f9
ff
fe
ec
ff
06
09
fe
04
11
04
02
00
01
09
15
09
ed
02
02
0c
fe
cc
ff
0e
02
02
ff
15
8e
fe
01
ff
fa
0a
fd
0e
06
0f
0b
00
fc
04
ed
fe
01
09
0c
03
f9
fc
05
fc
fb
fd
0a
fd
00
00
fc
07
00
0b
0f
0a
00
00
01
0b
00
00
00
00
00
00
ff
01
00
00
00
00
ff
00
00
01
00
ff
00
00
ff
00
00
ff
01
ff
ff
00
01
00
00
ff
ff
ff
00
00
01
00
00
00
01
00
01
01
00
00
00
00
00
ff
00
ff
ff
00
00
00
ff
00
ff
00
00
ff
ff
01
01
01
01
00
ff
00
00
ff
00
01
01
ff
ff
00
00
00
00
ff
00
00
01
01
00
ff
00
01
01
01
ff
ff
00
00
00
ff
00
00
00
00
ff
00
ff
01
00
00
00
01
00
00
00
00
00
01
00
00
00
fe
00
01
00
00
ff
00
01
00
01
00
00
00
ff
00
01
01
00
00
00
00
00
01
01
00
00
00
01
ff
ff
00
01
ff
00
00
00
01
00
00
00
fe
ff
ff
ff
ff
00
00
00
00
00
01
ff
00
00
01
00
01
ff
00
00
00
00
00
00
ff
01
ff
ff
00
01
00
01
00
00
00
01
00
ff
ff
01
ff
00
01
00
01
00
00
00
00
00
01
00
ff
01
00
ff
00
00
00
00
ff
00
00
01
01
00
ff
00
ff
00
00
00
00
ff
00
01
00
00
00
00
ff
01
01
01
00
ff
00
00
ff
00
01
00
01
ff
00
ff
ff
00
ff
01
00
00
00
01
ff
00
ff
00
ff
00
00
00
ff
ff
00
ff
00
ff
ff
00
00
01
ff
fe
00
00
00
00
00
ff
ff
00
ff
01
01
ff
ff
00
ff
00
fe
0a
05
0b
02
ef
f0
02
05
fc
02
f9
fc
04
f4
fc
f6
ea
03
02
05
02
fe
02
02
01
02
ff
0b
00
fd
01
f4
07
00
03
fd
06
00
fc
fc
fb
01
01
00
f8
f3
e0
09
f6
dc
03
f9
ff
02
f4
fd
f3
00
f6
09
09
ef
00
fc
08
f2
04
ff
00
01
fa
e0
f5
f9
ee
04
08
fd
01
08
fe
04
00
ed
00
05
f2
fd
d9
06
fa
08
fa
fe
01
ff
04
ff
07
07
e2
f6
ec
ff
ff
f9
07
03
f8
f0
fe
06
00
ff
1d
fd
01
01
05
01
f2
11
10
fb
07
01
ff
10
f8
02
02
0d
06
07
01
0d
fd
00
fc
03
0d
00
ff
fe
f9
01
ff
05
00
fe
fe
08
fe
ea
01
ff
03
02
fe
f6
fc
03
04
04
ed
ff
00
f2
01
f8
0c
f2
03
f2
05
e5
db
03
fe
f8
ff
03
fa
00
03
f8
02
e0
00
07
06
03
f2
f3
00
f8
01
fa
05
04
f6
e2
05
f5
fd
fe
fc
01
ee
fe
01
01
d1
ea
f9
f5
ff
fc
e0
f3
fd
00
02
fa
06
da
02
f0
00
e0
ff
fb
fa
05
02
02
f0
f2
ff
02
f9
fe
0c
00
00
fc
ea
00
ea
02
f7
e8
00
f0
04
fb
05
03
03
fd
f5
03
fe
01
f3
fe
fc
03
fb
f4
03
f8
fa
07
03
ff
00
03
f5
02
05
09
09
01
f5
07
10
06
08
fd
01
05
fd
13
fc
ed
f8
fe
09
01
02
00
fc
ff
fc
fe
00
02
ff
02
fd
00
ff
ff
02
03
06
ff
02
03
02
ff
01
fd
ff
fe
ff
00
00
fd
fb
00
02
fc
05
06
00
ff
02
02
fe
00
01
01
fe
04
00
01
00
02
02
ff
05
02
01
01
01
ff
fb
01
00
05
00
00
ff
ff
01
00
03
01
fd
00
02
fe
fd
fc
00
ff
06
02
ff
03
ff
fc
02
ff
03
00
fe
ff
01
01
ff
fe
ff
ff
01
00
00
ff
fc
01
01
ff
02
03
ff
00
fe
03
04
02
00
ff
00
00
00
03
00
01
ff
03
00
03
01
01
01
01
01
04
02
fe
fd
00
fd
03
02
fe
00
fe
ff
01
ff
01
ff
03
00
02
ff
ff
01
00
ff
00
01
01
00
00
00
03
00
ff
01
02
fc
fe
02
02
01
03
03
fe
02
fe
03
ff
01
02
ff
fd
fe
00
01
03
00
00
05
03
05
03
04
ff
02
01
04
00
00
fd
00
fd
04
04
02
00
01
00
fd
fe
01
02
01
fd
05
00
00
02
01
ff
01
04
01
02
00
02
01
06
03
fa
01
02
fe
00
00
ff
02
00
01
00
fd
ff
01
03
ff
05
ff
02
01
06
01
04
04
05
ff
fe
ff
ff
fd
fe
05
02
fd
00
00
00
02
03
ff
09
01
03
04
04
02
fe
00
fe
00
03
01
03
fd
01
ff
fe
01
04
01
ff
05
00
00
ff
02
00
03
01
fd
01
fe
00
11
07
00
04
0d
fd
03
f9
07
01
1a
ff
f1
fa
01
f6
fe
00
f4
00
f9
00
e5
00
00
ff
f5
ff
04
04
fb
0f
f9
03
00
09
01
fd
06
fd
f6
ef
02
f9
ef
00
f8
f7
04
05
ef
04
0b
fb
18
fb
0a
f7
ec
fd
0b
ff
fc
e5
13
f5
0b
03
04
00
fc
06
f6
0a
ef
07
09
04
f8
02
00
06
01
18
fb
03
f2
fc
fd
02
fc
fb
f7
02
e5
00
fe
fd
08
07
f0
f1
fc
02
fb
f5
00
f9
ee
f6
f4
0d
fc
fe
0b
01
03
fb
02
01
e1
12
f9
08
03
f4
05
1a
17
03
02
01
00
fe
ff
e4
f1
ff
f4
ff
03
fe
ff
04
f3
e4
fe
04
00
fd
00
f7
02
1c
f1
0f
01
f5
01
0c
0e
06
06
f7
1b
04
08
f4
0f
0b
eb
ed
0a
14
f5
fd
fd
fc
fa
f7
ff
02
0a
02
03
00
0c
fc
06
d9
02
ff
0d
ed
03
08
fd
fd
f3
fd
00
05
c8
16
eb
04
f9
00
08
0c
05
ff
f7
05
10
f8
02
ff
05
f3
fa
09
00
14
02
f0
00
09
f7
fa
02
0f
06
0b
eb
fd
f4
fe
04
fb
ea
dc
02
01
01
03
df
f5
18
03
fa
10
ff
fb
00
19
03
01
da
f7
50
01
0a
fe
16
e3
02
f5
fe
eb
e5
ff
0d
fa
dd
00
01
dd
08
01
f8
03
0b
ec
14
e2
0e
01
d6
fe
02
fe
03
17
0c
eb
06
01
07
07
10
06
03
fe
fa
f8
0b
01
03
f7
fa
03
f0
f9
07
f5
f4
06
05
03
02
f8
fe
ff
01
ff
f1
f9
0c
00
00
13
00
fc
ff
02
f9
ff
06
fd
f0
fe
f5
00
f1
01
f1
fa
06
f6
f8
f6
14
f7
0b
fb
07
f7
f9
fd
f9
fe
ff
f6
f6
f2
01
02
08
ff
fc
fb
03
fa
f2
ff
01
fd
02
ef
01
16
ff
08
fb
05
01
00
f9
03
fc
03
f2
fc
f5
01
f4
00
f9
f4
fb
f5
fb
fe
fc
ff
fb
ff
fc
ff
f4
fa
f7
fd
13
fc
03
01
02
08
09
0e
fb
01
fd
f9
f0
0d
14
05
00
02
fb
fa
ff
f3
fe
f9
f9
fc
02
04
01
01
0b
08
fd
f8
ff
03
ff
f2
00
09
fa
f7
f8
f8
ff
f8
00
01
fd
06
ff
03
05
ff
0c
fe
f9
f5
ff
05
f5
ff
ec
05
01
00
01
f4
fd
02
07
00
fe
ee
02
10
03
ff
01
16
04
05
04
ff
f1
f8
ff
14
09
11
ef
05
03
fd
fe
fb
03
01
0c
fe
0b
01
00
fd
fc
ff
01
02
ff
00
f2
14
00
fc
05
06
fb
fa
06
f8
f3
04
02
00
fa
06
0f
05
ff
01
00
00
04
17
07
02
fc
12
fc
14
ff
13
ff
02
0a
fc
c3
ff
ff
00
06
09
03
1e
07
f5
09
01
00
fe
f6
00
03
12
fd
01
fd
f8
fb
f3
08
07
f8
00
05
ff
04
fa
02
0c
18
07
f4
ff
fa
fe
00
00
ff
ff
ff
01
00
00
00
01
00
01
01
ff
00
ff
00
ff
00
ff
00
01
ff
01
00
ff
ff
01
ff
00
ff
00
ff
00
00
ff
00
ff
00
00
00
00
ff
00
01
00
ff
ff
01
ff
00
ff
00
00
01
fe
00
00
00
00
01
00
00
00
00
01
01
ff
ff
00
00
00
00
00
00
00
00
ff
00
01
00
00
00
00
01
01
ff
ff
00
00
00
01
00
ff
ff
ff
01
00
00
00
00
01
ff
01
00
00
00
00
00
00
00
ff
00
ff
ff
01
00
00
01
00
ff
00
01
00
01
00
ff
00
00
00
00
00
ff
00
00
ff
ff
ff
00
00
00
00
ff
00
01
01
00
00
00
ff
ff
00
00
00
00
00
00
01
00
00
fe
01
ff
ff
00
00
01
00
ff
00
00
02
00
00
00
00
00
ff
00
00
00
00
00
ff
00
ff
00
00
00
00
00
ff
01
ff
01
00
ff
00
00
00
00
01
ff
00
ff
00
00
ff
00
01
00
01
00
fe
ff
00
01
01
01
00
ff
00
00
00
00
00
01
01
ff
ff
00
00
00
00
01
00
00
00
01
00
00
00
ff
00
00
ff
01
00
ff
00
00
00
01
01
00
ff
01
00
00
01
00
00
01
00
00
00
ff
00
02
00
00
01
01
00
01
00
00
00
00
00
01
01
00
ff
00
00
ff
00
00
01
00
01
ff
00
00
00
00
00
00
ff
ff
00
ff
00
00
00
ff
00
00
00
00
00
00
00
00
00
00
00
00
00
ff
00
01
00
ff
00
ff
01
00
01
ff
ff
01
ff
00
00
ff
00
ff
00
00
ff
00
ff
ff
01
00
ff
ff
00
ff
01
ff
00
00
00
00
01
ff
00
00
00
01
ff
00
00
00
ff
ff
ff
00
ff
00
ff
01
ff
ff
ff
00
01
01
00
00
00
01
00
ff
00
ff
00
00
00
01
ff
00
00
ff
00
00
00
ff
01
00
00
ff
01
00
00
00
01
ff
ff
01
00
00
ff
00
ff
00
00
02
00
00
00
00
01
00
00
01
ff
00
00
ff
01
ff
00
00
00
01
00
00
00
00
ff
ff
00
00
01
00
ff
00
00
01
01
00
00
00
00
00
00
01
01
00
00
00
00
01
00
01
00
00
ff
01
ff
00
ff
01
01
00
00
00
fe
01
00
01
00
00
01
00
00
ff
00
ff
ff
00
ff
00
00
01
00
00
00
ff
ff
00
ff
ff
00
00
00
00
00
01
00
00
00
00
00
01
01
00
ff
01
00
00
00
01
01
01
00
ff
ff
00
00
00
00
ff
ff
01
ff
00
fe
00
00
00
00
01
00
00
00
ff
ff
ff
00
fe
00
00
00
00
00
01
00
00
00
01
ff
00
ff
ff
00
00
00
ff
01
00
01
00
ff
00
ff
fe
00
00
ff
00
01
00
00
ff
ff
01
00
00
ff
00
ff
01
01
00
00
0f
13
fe
fc
fd
08
00
fd
00
ff
fc
ff
05
09
08
05
03
02
ff
08
04
00
fa
0b
00
0c
04
07
ec
01
fe
04
fe
fd
fe
fa
06
01
07
fc
06
01
04
06
fc
07
fe
06
f0
04
00
fe
09
fa
fa
01
0a
07
04
08
07
04
06
05
05
01
06
00
03
ff
01
13
f9
05
f8
02
01
ff
e9
f6
03
0e
ff
fb
0f
ea
fd
01
0f
ff
00
fd
05
03
fb
03
fd
02
02
0d
f2
e3
ff
01
10
09
04
00
f4
e3
04
fd
01
02
02
03
03
03
02
fb
09
e3
fe
fe
03
02
f8
f2
fb
e9
fa
0a
ff
0f
fa
fe
00
01
0e
fe
01
fc
fb
0e
0d
10
00
ec
00
ff
01
0b
fb
f4
f7
f3
fd
10
00
02
0b
00
00
fb
02
fd
ec
fa
0a
07
fd
f9
00
fd
f8
e7
fb
0a
fb
04
fe
f1
fc
fd
02
00
05
06
03
f2
fa
01
0c
0c
fb
01
ff
02
06
fd
fa
eb
ef
01
01
03
0a
ff
f6
02
03
00
fb
1b
05
fb
01
03
ec
02
00
01
fc
0a
02
d8
fc
fe
0b
e3
01
04
fe
f2
fc
fe
fa
fc
00
01
0a
0c
f3
f9
02
f6
e3
e4
e6
fe
f9
e0
01
ff
01
fc
fb
00
07
f5
47
fe
f6
ff
00
0f
ff
e6
15
f3
e7
06
00
09
fb
00
01
ee
ee
02
fb
0f
08
de
00
07
fb
f8
06
01
ff
f2
16
e8
f5
ea
ff
01
f8
f6
f1
e2
03
02
da
d2
ff
0f
ff
ed
dc
02
ed
d9
fe
01
fb
02
ee
f7
f4
fe
fd
01
fc
f9
07
f6
fd
00
03
f8
04
04
f9
f2
05
fe
fb
fe
f1
fd
f2
05
0c
fe
fc
02
01
fa
f2
f9
c7
de
f9
fb
eb
f3
0b
f8
f8
06
ff
01
fc
f5
ea
fe
0f
01
fe
f4
06
ec
0a
04
f5
02
ed
09
ff
d1
ff
ec
02
fd
02
02
ef
00
fb
0c
fd
02
f0
01
dd
02
07
eb
0f
fb
08
00
06
05
f9
07
1a
fd
02
17
fc
01
fe
fd
fe
09
fc
f5
fb
06
09
03
f6
05
fa
02
f2
fe
fb
0c
fc
fc
01
18
fd
00
09
00
12
05
07
f6
f0
fb
00
05
03
01
05
06
03
d4
f1
f8
fe
08
00
11
ea
01
0b
14
e1
00
e3
0d
f9
f3
19
12
ed
ee
fa
03
0e
f2
01
02
01
f7
fc
01
13
fa
2c
07
f1
fe
00
00
ed
f7
f8
0a
ff
ff
f5
00
fb
de
fb
ea
0b
00
e9
03
e7
f3
fe
ff
f8
f7
04
07
03
fd
e5
13
ff
05
03
e6
f9
ed
fe
fe
f5
ea
fe
e7
08
f1
e8
00
ff
0c
07
03
f5
ff
fc
f8
fd
08
07
f7
d4
f6
03
f3
02
cd
ff
fa
06
00
00
f5
e8
01
01
02
e9
fe
fd
fc
f8
f1
ff
01
fc
01
df
01
ff
f9
07
02
03
fc
f8
ed
05
00
ff
ff
06
ff
ff
fa
f7
08
ff
00
e2
05
fc
ee
c0
a6
fa
01
bf
c4
fd
08
04
00
da
04
db
ac
fa
fb
08
fc
f7
01
f5
fe
ef
f4
fd
e1
05
e6
fc
05
00
fe
fa
04
f7
00
00
fe
f8
07
e5
00
07
00
05
01
ee
f7
06
e8
e0
d1
ce
fc
fe
01
ec
ec
fd
04
f1
fa
01
fa
f1
f4
f7
02
fb
01
ff
f1
04
dd
06
ff
09
02
ee
ef
00
ac
01
f8
fc
00
f3
00
f4
00
09
fb
e1
fe
df
fc
00
ff
08
e9
0a
0f
fd
ff
01
ff
02
07
0b
06
fe
08
00
ff
02
01
ff
fd
ff
f9
01
03
01
f9
ff
05
ec
fe
fa
07
fd
fc
02
de
fd
ee
fe
fc
f4
ff
05
06
00
fa
fb
05
fe
f4
01
03
00
07
03
c3
e8
fa
06
f3
ff
f4
f4
ff
01
10
fa
01
fe
f3
00
fd
f8
0b
fa
f7
f5
12
ee
01
fe
fc
fe
f2
00
fe
fc
03
0e
eb
ff
03
06
fc
ee
00
f7
02
f9
fd
d1
fd
f8
e9
06
ee
0b
02
fc
06
ff
f8
02
01
12
ef
02
09
04
fe
09
05
00
fb
fd
f5
f7
11
f9
fd
02
0f
fd
fa
fd
ef
d3
01
02
ff
06
fd
00
ff
fe
fd
ff
04
12
f3
df
fc
fe
dc
08
b7
01
02
05
fe
fa
01
e2
00
07
fe
f2
00
02
ff
04
18
04
06
04
02
d9
01
02
f6
f5
01
f8
06
08
16
09
fd
14
fd
ff
02
fd
10
02
06
1b
15
f8
00
02
1e
ed
e4
f1
01
ed
f3
04
03
fe
03
f6
ff
f3
ed
f6
03
10
fd
fe
fa
00
ff
02
f0
03
f6
03
e6
01
02
fd
01
04
ff
05
04
02
00
ff
02
f3
fd
05
06
f1
01
0d
02
fc
03
f7
ed
0c
f9
f8
00
02
f0
0a
fd
f5
0c
02
04
ea
00
fb
01
03
00
02
09
0d
f2
e9
00
00
04
03
02
fe
03
01
fe
fc
fe
ff
fc
08
02
05
fc
ef
f5
f7
02
fe
f6
f9
da
e6
0c
fd
00
ef
02
fb
07
e0
03
ff
fc
f7
05
f9
fa
ff
03
fb
03
f9
fb
fe
ff
fa
f9
f6
f4
ff
fd
01
ff
01
f4
fc
02
fd
ff
ef
02
fa
f8
ff
07
f3
ee
00
00
01
00
00
01
fb
fd
f6
e8
fe
f2
01
06
f7
02
01
06
f2
02
ff
08
01
06
00
f1
01
f1
f1
fd
ef
fd
f7
f2
00
05
fc
03
f3
00
ff
00
05
00
fa
01
f9
02
02
fc
00
fb
eb
02
fe
f9
f8
ff
fb
fe
ed
01
f8
f2
00
03
fd
01
08
fe
01
00
fb
0a
00
02
00
ec
f3
fe
fc
fc
f0
fe
fa
f4
fa
fb
f5
01
0b
04
ff
02
f9
ed
fe
07
00
08
0c
03
fb
04
01
02
08
f9
ff
fe
04
01
f4
fe
f5
03
f5
00
f6
f2
03
04
f9
05
f9
02
00
fd
f5
01
00
00
00
fe
ff
eb
f6
fd
ff
f3
f5
02
f1
01
02
03
f0
00
f1
08
ea
02
f4
00
00
00
fe
00
00
00
01
00
00
00
00
ff
ff
ff
00
00
00
ff
ff
ff
00
00
ff
00
ff
00
ff
01
00
00
00
ff
01
01
01
01
00
00
00
00
00
ff
01
00
01
00
00
00
00
ff
01
ff
01
ff
00
00
00
ff
00
00
00
00
00
00
ff
00
00
00
00
00
00
ff
00
ff
02
00
00
ff
00
01
01
01
00
00
00
00
ff
00
01
00
01
00
01
00
00
00
00
00
01
00
00
00
ff
00
00
00
01
ff
00
00
00
00
00
00
00
00
00
00
00
00
ff
01
00
ff
00
00
00
00
00
00
02
01
ff
ff
00
00
01
01
00
ff
01
01
01
00
00
01
ff
00
ff
00
ff
ff
ff
ff
00
01
01
00
01
ff
00
ff
01
00
ff
01
01
00
ff
01
00
ff
ff
ff
02
00
ff
01
00
00
00
ff
01
00
01
00
ff
00
00
00
00
ff
01
01
00
00
00
01
00
00
00
00
00
01
00
00
00
00
00
00
01
ff
01
00
00
00
00
00
00
ff
01
ff
ff
01
01
00
00
00
01
ff
ff
ff
ff
00
ff
ff
ff
ff
00
ff
00
01
01
00
00
00
00
00
01
ff
01
01
00
ff
01
00
00
00
00
01
00
01
00
00
ff
ff
ff
00
00
00
01
00
02
00
ff
01
ff
00
01
00
00
00
01
01
00
ff
00
00
01
00
ff
ff
00
ff
ff
01
00
ff
00
01
fd
fc
00
ff
fb
ff
ff
02
00
06
fd
ff
fe
fd
ff
ff
01
00
02
04
00
fe
fe
00
ff
ff
01
fe
ff
01
01
f9
00
01
03
02
07
ff
fc
fe
fe
ff
07
ff
01
01
fd
03
00
fd
fd
fc
f8
06
fc
fe
fb
ff
fa
00
fc
fe
fe
fa
fb
fb
03
ff
01
00
02
fc
02
fd
04
01
fe
00
05
03
ff
fa
00
fe
fe
01
00
00
ff
00
00
01
fd
ff
fc
00
06
02
01
fb
02
f6
fe
00
ff
02
fe
01
02
f9
ff
04
fe
fe
00
fe
ff
02
02
fe
02
fb
04
fd
fe
02
fe
fe
fc
00
00
01
fd
fe
02
05
00
fd
ff
ff
fe
fd
00
03
02
02
ff
00
00
01
01
06
fe
fa
fa
fd
00
fe
00
05
fe
fe
fe
01
fd
ff
01
00
00
06
06
03
05
f9
01
f5
f6
02
01
02
01
00
05
00
fc
02
02
fd
06
02
01
ff
fb
00
05
ff
00
00
ff
01
fa
f8
02
fd
00
03
fe
00
06
fd
fe
ff
f5
fd
fe
00
00
ff
f8
00
01
02
02
fd
fc
fb
fb
00
ff
f4
00
fd
02
fe
01
01
00
fc
00
01
01
01
fc
fe
01
00
fb
ff
f7
03
fd
f6
fe
fd
01
fb
01
ff
02
ff
04
02
fe
ff
fb
03
01
01
fe
f9
00
01
06
ff
fc
ff
00
01
ff
00
fe
ff
05
fd
fd
01
f8
02
01
ff
02
05
00
fe
fe
fc
fa
fe
fe
01
04
05
02
00
05
02
fe
02
ff
01
04
ff
01
01
fe
00
fe
00
03
fd
00
fe
02
01
fe
01
01
00
fe
01
fb
00
02
03
01
04
03
ff
00
00
ff
00
02
00
00
fe
00
05
fd
03
01
03
04
01
02
ff
ff
00
04
02
00
01
ff
ff
01
00
02
ff
00
00
fe
03
02
02
01
ff
03
02
03
04
01
03
ff
02
ff
fd
ff
fd
00
fe
02
02
00
02
01
00
02
01
01
00
01
02
01
01
01
05
02
03
01
fe
02
03
fe
ff
00
03
00
00
fe
04
ff
fd
01
ff
01
04
ff
ff
00
02
ff
04
fe
01
00
02
00
00
01
fd
ff
ff
00
05
ff
01
01
02
00
00
01
02
01
04
00
ff
01
01
00
07
ff
ff
05
00
03
fe
04
02
00
07
01
00
04
02
08
ff
fe
02
ff
02
ff
00
03
ff
fe
00
05
04
03
02
00
00
01
01
03
03
ff
02
01
fe
fe
fe
00
00
fd
00
00
02
03
ff
01
ff
fe
05
00
03
01
ff
fe
ff
01
05
fe
00
00
ff
fe
01
ff
00
02
01
02
fe
03
fe
00
01
02
ff
00
00
00
00
00
00
fe
01
05
05
fe
00
00
04
02
ff
00
ff
04
00
00
01
00
fe
00
01
ff
01
00
00
00
fd
05
fe
02
ff
00
00
02
01
01
01
fd
02
01
03
00
fe
03
fe
fd
04
01
fd
00
ff
00
00
01
04
0c
0a
04
00
07
08
01
fe
ff
11
0b
01
03
02
fd
01
fb
01
08
ff
ff
02
01
04
00
04
fe
01
00
00
01
07
fd
02
02
04
00
01
04
00
01
03
10
00
08
01
ff
fe
00
ff
02
01
05
0e
03
ff
00
02
03
04
ff
02
fd
02
00
01
03
ff
fd
ff
00
fd
00
04
0a
01
06
00
05
ff
01
06
ff
03
ff
ff
04
00
00
00
01
02
ff
ff
04
fe
0e
01
fe
fd
06
fd
02
fe
fe
ff
05
ff
04
fd
fc
02
01
01
fa
00
ff
ff
01
01
ff
fe
fb
01
04
ff
fd
fe
03
ff
00
03
01
03
00
fc
00
00
00
ff
fe
01
ff
04
fc
fb
ff
01
00
ff
00
fd
00
0a
02
fc
00
ff
ff
08
01
01
04
fc
01
fe
03
01
ff
05
fe
08
03
00
01
fe
01
01
fe
fe
ff
fe
02
fe
02
ff
03
00
03
f9
01
02
ff
fc
03
06
fe
01
01
ff
02
fe
fe
00
fd
ff
00
ff
04
ff
ff
01
fc
fe
fe
00
00
ff
fd
fe
00
04
fe
ff
fe
02
01
fe
fd
fd
01
01
ff
fc
05
00
01
00
00
ff
fb
fd
ff
03
00
fe
fd
fe
09
05
fd
ff
fd
05
01
01
fe
00
fd
ff
ff
fe
fd
00
fe
fb
01
f9
fd
00
fe
ff
05
fd
01
ff
00
fc
00
ff
03
fe
fc
ff
ff
fc
fb
fe
00
01
ff
03
fd
fd
fb
fb
ff
ff
01
02
f1
f4
00
ff
f8
fe
01
f8
00
00
fd
fd
01
fc
fb
fc
f3
fe
03
f5
fe
03
fe
f8
00
fb
04
02
fa
01
00
01
fc
04
fd
01
f8
03
ff
02
ff
fd
00
0a
f6
fc
13
03
f8
09
f7
f9
f0
ff
06
fe
05
04
06
01
06
04
04
14
fe
10
02
03
ff
01
f7
0b
fa
fe
04
fc
ed
04
07
f3
01
ee
ff
0a
03
f9
00
00
13
fe
00
f9
fe
0b
ff
00
fd
fe
00
f9
ff
f0
02
ff
f9
05
fe
00
f9
02
fd
fd
fd
fb
01
02
07
fc
05
0c
ff
00
fb
fd
fe
fe
04
fe
15
0e
ff
03
03
ff
03
f0
ff
fe
fb
06
07
07
00
08
fe
00
fe
00
01
f7
00
f0
fe
fb
ff
09
00
02
00
09
02
fb
06
f1
05
01
07
05
ff
03
f5
f6
04
ff
f7
0c
06
05
05
05
01
04
08
00
ff
06
05
ff
02
04
03
ff
03
01
04
06
fc
00
00
03
fc
07
fd
07
03
f8
04
fd
fe
04
ff
ff
02
ff
02
06
02
ff
09
02
fe
02
f7
ff
0b
09
fb
fb
01
1e
03
0b
01
0e
01
fe
03
fb
01
fa
fd
00
0e
fb
ff
04
18
0a
fb
05
05
0d
01
fe
00
0a
04
02
04
11
0c
fd
fd
00
07
ff
07
06
02
19
ff
06
00
03
00
04
fd
06
f5
00
0b
fe
fa
0b
fe
05
00
fe
05
01
fb
01
ff
00
f9
0e
07
00
06
0a
fb
02
fa
02
0d
06
04
f0
f8
fa
0a
fc
f7
0e
f7
fd
f8
fe
ff
ff
00
07
08
f9
01
fe
06
ff
05
00
04
fc
07
01
fc
fe
fb
06
fc
00
fb
01
fb
fc
fd
00
10
09
f3
09
10
00
ff
fe
08
00
fa
f9
0a
07
f9
03
fc
0f
fc
0e
07
02
f8
00
05
05
f9
f8
04
00
06
01
08
0d
01
08
01
0d
fb
ff
12
fc
0a
01
00
02
04
07
10
fe
f8
01
04
06
02
02
fb
00
f9
05
07
ff
fb
0a
fa
03
fb
04
fa
02
02
fb
00
05
f9
f2
04
00
09
fe
06
f9
00
08
fd
fc
fa
04
07
f6
07
ff
ff
00
f9
ff
04
01
09
fc
fe
0c
ff
fe
01
fc
fd
11
0c
0b
ff
fd
01
04
fb
ff
f5
f2
0c
fc
05
01
fe
04
fd
fd
01
07
0f
fa
0f
03
07
13
06
04
0f
02
f3
04
0a
08
01
fd
02
ff
fb
02
05
fe
02
ff
05
02
06
fa
f6
f9
08
02
fd
fe
0c
03
00
fc
f8
03
f8
fe
00
ff
f6
ff
fb
01
fe
02
0c
09
05
06
09
04
02
0c
01
0f
17
fd
05
00
f9
00
01
f8
fd
f4
00
ff
03
01
11
01
08
07
fa
09
05
f8
fe
00
01
04
02
f9
fe
fe
fb
f7
06
f5
05
0b
f7
09
07
0b
fe
00
fc
04
06
02
f7
08
f8
fd
fb
04
fc
01
02
00
01
fc
07
f4
f1
12
04
fb
fe
0c
d9
d5
f9
fc
e1
f1
02
07
ff
01
ec
05
ff
e5
ff
01
05
fb
0a
03
01
fe
ec
f1
01
e4
04
fa
03
fe
00
ed
0a
fd
02
ff
01
00
ed
fd
0a
05
fd
f6
00
00
02
ff
04
05
ed
f7
da
00
fa
00
fd
ff
f9
0b
0d
fa
fd
f1
11
f3
01
fc
fd
fb
05
11
fa
fc
fd
fc
21
fe
00
07
fd
d3
00
f6
00
01
02
01
14
02
fd
03
04
01
ec
06
01
fc
05
fc
fd
0f
fd
ff
06
05
09
03
04
ff
04
02
00
06
0d
01
ff
0b
01
08
11
03
fe
fe
08
00
00
08
03
fb
ff
ff
02
e0
fe
f4
fe
fb
ec
fd
00
ff
ff
07
14
12
ff
fe
01
03
00
00
ff
e6
f0
f2
fe
07
02
fe
0b
ff
f5
0d
f5
00
04
f8
0a
04
fd
04
01
fb
01
08
dd
09
0a
0f
00
03
03
00
00
f9
07
04
00
0c
fb
00
01
1d
ff
fa
01
00
f6
fd
0b
fa
06
06
08
06
0a
01
fd
11
00
02
08
05
08
fd
00
fe
0c
06
fb
ff
ff
09
f9
17
fd
ff
12
04
ff
01
02
fd
f6
01
fd
f4
fe
fb
13
0d
07
fd
01
fb
01
0a
f3
02
f8
09
ff
e6
01
05
ff
01
07
18
2d
02
ff
ff
0f
10
02
0e
0e
12
0b
ff
ff
07
f6
02
00
12
00
02
f3
06
03
07
0c
06
06
07
02
ff
ff
ff
0d
ff
00
0b
04
01
00
02
0a
04
02
ff
04
05
ff
00
ff
04
09
fe
02
00
00
ff
fd
02
00
00
01
00
01
02
00
06
00
fd
fd
ff
ff
04
ff
02
01
00
02
00
00
ff
01
01
01
ff
00
00
ff
fe
00
00
ff
ff
01
01
01
00
00
00
fe
00
01
fb
ff
00
ff
00
02
fe
ff
ff
ff
01
fe
02
02
ff
00
00
00
00
00
02
00
02
ff
00
fe
00
01
ff
00
ff
fd
00
00
ff
01
ff
00
ff
ff
ff
ff
01
fe
ff
02
00
ff
ff
00
01
00
ff
fe
fe
ff
00
00
00
00
00
02
01
01
02
00
ff
02
fe
01
00
fe
01
ff
03
ff
00
fd
00
ff
fd
00
ff
00
00
ff
ff
01
ff
ff
03
00
04
ff
ff
fe
fd
00
01
00
00
02
01
03
00
00
fc
00
00
02
01
01
00
01
00
01
02
00
fe
00
ff
00
fe
00
00
01
ff
00
fc
01
ff
00
00
01
01
00
ff
ff
01
03
fd
fd
02
fe
00
00
ff
01
fe
00
fe
fd
01
ff
fd
00
ff
ff
fd
ff
01
ff
fc
00
fe
03
fd
ff
00
00
02
ff
ff
02
00
ff
ff
ff
01
00
00
ff
01
01
ff
fc
ff
04
01
ff
fd
fe
00
ff
01
00
ff
00
fd
01
ff
ff
00
01
00
01
fd
01
ff
fc
ff
ff
ff
ff
ff
ff
00
fb
ff
ff
ff
01
01
ff
fe
00
00
00
00
ff
ff
00
00
ff
fe
01
01
00
ff
e9
e9
fe
fe
ea
e8
01
fd
fe
03
ea
fe
ef
ee
f6
f8
03
01
01
fc
f8
03
04
f3
fe
e4
ff
f5
01
f5
f8
e9
ea
fe
f7
fa
ff
01
e9
02
f7
f8
fd
ff
fc
fc
08
fd
fc
11
0a
f9
f8
08
ea
02
f0
f1
f3
ff
f8
fb
03
eb
fd
f8
f9
04
f7
03
fc
0a
04
f7
07
00
03
fe
f8
e7
ff
e3
04
03
01
ff
fd
03
0b
fb
04
03
ff
fe
06
fa
07
f8
f3
fc
f7
f0
0b
01
f3
fa
fd
fb
00
00
fd
f2
04
01
fb
f8
fe
fd
02
e6
f9
03
04
f6
02
00
e8
fc
f3
fc
03
ff
ff
e2
01
1d
fc
00
fa
fd
00
05
00
01
f8
02
03
ea
01
ff
02
fd
fe
e3
0b
f5
fc
fa
02
09
fb
05
02
fc
0f
02
d2
0d
f9
fb
0e
f8
f5
ed
f1
df
ef
fe
04
01
05
f0
04
ff
00
fc
f7
0a
ff
09
00
fe
ec
f9
ff
05
f9
fa
f8
fa
f9
fe
09
f2
f6
05
f6
03
f9
08
ff
fd
f9
0c
fb
01
02
01
ee
fa
fa
ff
fd
fd
f8
fb
f5
05
00
e2
ff
ec
00
fc
fd
00
f4
f4
fd
fe
f9
05
f1
05
03
03
f9
0e
eb
de
fd
ec
04
df
05
f0
fd
fe
06
04
10
fe
03
00
f2
04
ff
08
fc
db
01
f4
f8
fb
f0
01
fe
09
f7
fd
ed
fd
f0
e2
f9
07
06
ff
08
00
00
f6
00
fc
0d
03
ee
fd
f8
fa
00
01
00
00
ff
00
ff
ff
01
ff
00
ff
ff
ff
00
00
00
00
01
00
00
00
00
00
00
ff
ff
ff
00
00
ff
01
ff
00
01
ff
00
00
00
00
00
00
01
ff
01
ff
01
ff
ff
ff
00
00
00
00
ff
ff
00
ff
01
00
ff
00
ff
ff
01
00
00
00
ff
01
ff
00
01
00
01
00
01
ff
ff
00
00
00
ff
00
01
ff
00
00
00
ff
ff
ff
ff
00
ff
00
00
fe
00
ff
01
00
00
00
00
01
ff
01
00
ff
00
00
00
01
00
ff
fe
01
00
ff
01
00
ff
00
01
00
00
ff
00
01
00
ff
ff
00
00
00
00
00
00
00
01
01
00
01
ff
ff
ff
00
00
ff
ff
00
00
00
00
ff
00
01
01
ff
01
ff
ff
00
ff
ff
00
ff
00
01
00
00
ff
01
00
ff
00
01
00
01
ff
00
00
00
fe
ff
ff
00
ff
00
ff
01
ff
fe
ff
00
00
00
00
ff
00
ff
ff
01
00
00
00
00
00
ff
00
ff
01
01
00
02
00
01
00
00
ff
ff
00
01
ff
01
00
01
00
00
ff
ff
00
00
00
01
ff
fe
ff
00
00
00
ff
00
00
ff
01
fe
ff
00
01
ff
01
01
ff
00
ff
00
00
00
01
ff
01
00
00
00
ff
01
ff
00
00
00
00
01
01
00
00
01
00
00
00
00
01
ff
00
00
00
ff
01
00
ff
fe
00
01
01
00
ff
00
00
00
e9
de
02
fb
e3
ee
fd
fc
00
ff
e8
ff
f4
f6
f1
0e
fc
fe
fc
03
fb
04
f9
f7
fe
eb
07
f6
f4
ff
01
e8
fb
fa
01
f2
0c
02
ec
ff
f9
f5
05
fe
fe
ff
01
01
02
08
f7
07
da
fb
f1
04
f7
ec
f7
f2
0f
fb
ff
eb
19
f6
01
fd
fc
02
f9
f1
ef
fb
f4
ff
fe
00
fe
09
ff
d8
01
f0
fb
fa
07
fc
f1
ff
fe
02
01
05
f4
04
ff
00
10
09
ff
ef
f2
00
f9
05
ef
fe
06
f6
f8
15
fd
fb
fb
01
00
01
05
0e
fe
fb
02
ff
ef
05
0d
f9
01
eb
fd
fb
fb
f5
08
e9
06
01
f8
ff
02
f7
03
fb
fb
06
01
f4
00
fc
02
19
02
ec
f4
fb
f9
06
03
f3
fe
05
fa
ff
f6
00
0c
f0
05
f4
ee
02
03
f1
02
09
f7
fe
00
00
04
04
f3
01
fd
f8
15
05
fd
ea
fd
02
f7
fa
ff
03
06
fe
04
03
00
e2
f7
01
fd
02
f2
fb
e4
0a
fe
fc
ea
f4
ff
01
02
02
01
04
fc
00
ff
01
fd
ea
00
0a
03
09
03
f9
00
fe
fe
fc
fc
f8
02
fe
fc
04
15
f9
00
05
0a
e0
ec
07
f6
e7
f8
e3
ff
fd
fd
05
00
ff
ea
02
0a
02
08
03
fa
e1
01
fd
f3
f7
fe
02
e8
02
02
e9
ff
02
da
00
0f
25
fe
03
22
fd
02
03
fd
0d
fe
fc
e8
02
ff
04
12
0a
ff
ff
00
00
00
00
00
00
00
00
01
00
00
01
00
00
00
ff
00
01
00
ff
01
00
ff
00
01
ff
00
ff
ff
ff
00
00
00
01
00
00
00
ff
00
00
01
01
ff
00
ff
ff
00
00
ff
00
ff
00
01
ff
00
ff
02
01
00
ff
00
00
00
ff
00
00
00
00
00
ff
00
00
ff
00
ff
00
00
01
fe
ff
00
00
01
00
00
00
00
00
00
00
00
00
00
00
01
ff
ff
00
ff
00
00
00
ff
01
01
ff
00
00
00
01
ff
ff
01
ff
ff
ff
00
00
00
00
ff
00
00
ff
00
00
00
00
ff
ff
00
00
00
00
ff
00
00
00
ff
00
00
00
00
00
ff
ff
ff
01
ff
00
01
00
00
01
00
ff
00
00
00
ff
00
00
00
ff
00
ff
00
ff
01
00
00
00
ff
01
00
00
ff
ff
ff
02
ff
01
01
00
00
01
00
00
00
01
01
00
01
00
01
ff
00
00
00
01
00
01
00
ff
00
00
01
ff
ff
ff
ff
00
00
00
00
00
01
ff
00
01
00
ff
fe
ff
00
00
01
01
01
01
00
00
00
00
00
01
00
ff
ff
01
00
00
ff
00
00
00
00
ff
00
fe
00
00
01
01
ff
ff
00
ff
00
00
ff
ff
00
00
00
ff
00
01
00
02
00
00
00
00
ff
00
fe
00
00
ff
00
ff
00
00
01
00
00
00
00
00
00
00
00
ff
00
00
00
ff
01
02
fe
00
00
00
03
00
fc
fd
01
04
00
01
05
02
02
ff
ff
fd
02
00
02
00
02
00
00
ff
ff
fc
ff
ff
03
ff
00
04
00
00
00
01
01
ff
fd
fc
08
02
06
01
00
07
01
03
01
fc
02
00
00
00
06
fd
00
06
01
07
02
09
02
fc
fe
00
fc
05
06
00
06
ff
ff
ff
07
01
ff
01
01
02
04
fe
04
00
03
02
00
02
01
00
04
ff
fc
ff
01
01
06
06
02
ff
04
05
01
02
06
05
02
00
fe
00
02
01
00
fb
fe
01
00
02
01
02
01
ff
03
03
01
06
02
04
00
01
fb
06
fc
fc
03
01
02
05
ff
02
01
00
00
08
00
00
fe
01
02
05
03
03
01
05
01
09
02
00
02
01
03
ff
01
05
03
02
03
08
00
00
02
fe
02
01
02
01
fe
03
01
00
00
02
02
07
03
06
fb
00
00
01
04
02
02
fd
ff
01
00
07
01
00
00
00
02
00
00
03
01
01
ff
07
02
fe
00
ff
01
00
00
03
ff
02
00
08
05
01
fe
01
fa
05
01
ff
fe
01
ff
06
01
ff
01
00
01
00
ff
01
03
03
06
00
04
05
fe
02
fe
01
fe
ff
ff
02
ff
fe
01
00
03
00
02
07
03
07
04
ff
02
05
01
fc
02
02
02
03
02
05
ff
02
04
fe
02
ff
fe
00
00
ff
03
01
00
07
03
ff
ff
05
00
00
ff
00
00
00
00
fe
00
00
ff
00
00
01
00
01
00
ff
00
00
01
00
00
01
00
00
ff
00
00
ff
00
ff
ff
00
ff
01
00
00
02
ff
00
fe
fe
00
00
00
00
01
00
ff
01
01
ff
00
ff
00
00
00
ff
ff
00
00
ff
ff
ff
01
00
ff
ff
00
01
00
00
00
00
00
ff
ff
00
01
00
ff
00
ff
00
00
00
ff
00
00
01
00
00
ff
01
00
ff
00
00
00
00
00
00
ff
ff
00
ff
ff
00
00
01
00
00
00
00
ff
ff
01
01
ff
00
00
ff
ff
00
00
03
01
ff
01
ff
00
ff
00
ff
ff
00
00
00
ff
ff
00
ff
00
00
00
00
00
ff
00
00
00
00
00
00
00
00
01
01
01
ff
00
00
ff
00
00
ff
00
01
ff
fe
01
00
00
00
00
00
00
00
00
00
00
00
ff
ff
00
00
01
00
00
00
ff
00
01
ff
01
ff
00
ff
00
00
00
00
ff
00
01
00
ff
01
ff
ff
00
ff
00
00
00
fe
01
ff
00
00
01
01
01
ff
ff
00
00
ff
fe
ff
01
00
00
01
00
ff
00
00
ff
ff
ff
00
00
ff
01
00
00
00
ff
00
01
00
00
00
00
00
00
00
00
00
00
ff
00
ff
01
fe
00
00
ff
00
00
ff
00
00
00
00
ff
00
ff
00
00
00
00
00
00
00
00
00
ff
ff
00
01
00
01
fe
01
ff
00
ff
00
00
01
ff
02
ff
ff
00
01
ff
ff
00
ff
00
ff
00
01
01
00
00
01
00
01
00
00
00
ff
00
00
ff
ff
00
00
ff
01
00
00
ff
ff
00
ff
00
01
00
ff
00
00
00
00
ff
00
ff
00
00
00
00
ff
ff
01
00
00
00
ff
00
00
00
01
00
01
00
fe
00
00
ff
00
ff
ff
00
00
01
00
ff
00
00
ff
ff
ff
00
ff
00
ff
ff
00
00
ff
00
00
00
00
00
00
00
ff
00
01
00
ff
ff
ff
00
00
ff
01
00
00
00
00
ff
00
00
ff
ff
00
00
01
00
ff
ff
00
00
00
ff
ff
00
00
ff
ff
00
00
00
00
ff
00
01
00
ff
ff
ff
ff
00
00
ff
ff
ff
00
ff
00
00
00
01
01
ff
01
00
ff
00
01
00
01
ff
ff
00
00
00
ff
00
ff
00
00
ff
00
01
ff
ff
00
00
ff
00
00
01
00
00
ff
00
ff
01
02
00
01
00
00
00
00
01
00
ff
ff
ff
00
00
00
00
01
00
00
00
00
01
01
00
00
ff
01
ff
00
fe
01
00
ff
ff
ff
00
00
ff
00
00
01
00
fe
00
00
00
00
01
ff
ff
ff
00
00
fe
ff
00
01
00
00
00
01
ff
00
00
00
00
00
02
00
01
00
01
01
ff
01
00
00
00
00
01
00
00
00
ff
00
00
00
00
01
00
01
01
00
01
00
00
00
00
ff
01
ff
00
fe
00
14
02
ff
0d
02
08
fb
08
fd
ea
26
05
07
f8
fd
f4
fc
02
f4
04
01
fe
03
f6
05
00
0b
ff
f6
00
02
0b
0a
06
fd
03
ff
ff
02
02
fe
0d
ed
00
0c
02
02
f3
09
fb
02
fa
05
ef
03
ff
09
0b
0b
0a
fe
fb
00
05
ff
02
06
00
fc
fe
ff
01
06
00
0a
f9
07
ff
0d
fe
ff
08
fe
10
fd
fe
07
05
07
02
00
fe
ef
00
08
04
ed
05
f8
06
05
03
f2
03
f3
fb
0e
fc
ff
0a
07
f9
03
fe
10
fd
01
08
00
f8
11
0e
ff
fb
10
04
ff
14
fc
04
02
09
ff
f9
01
04
ff
fc
eb
02
f6
ef
fe
04
09
fb
01
08
fd
fe
fc
00
ff
1a
09
09
ff
f4
02
06
00
fd
00
0a
0c
ff
04
01
01
06
04
05
00
f4
fe
1e
f4
03
00
f8
02
fc
05
00
f4
fd
fb
f9
02
06
ff
01
06
04
09
05
fe
fe
00
05
04
f7
05
0b
fb
ff
00
ff
0e
0b
00
fc
11
06
fe
fc
fd
fd
1e
04
ff
00
00
fd
03
05
03
f8
ff
0b
fe
fe
02
03
03
ff
02
fb
fc
fe
0b
06
f6
fc
02
fe
e4
10
1e
fc
05
f0
f1
0c
fe
0b
fb
00
fd
03
12
ff
f9
00
07
ff
ff
07
0c
00
00
01
04
fd
02
ff
02
08
f5
04
ff
fa
04
f7
ff
f7
fe
03
00
02
ff
0b
08
0f
fb
e2
fd
fe
fb
f6
f1
f7
fb
fb
fc
01
01
00
01
06
f7
ff
02
08
ff
07
09
fc
06
01
03
03
09
fd
fe
f6
04
0a
03
03
03
f5
04
fc
06
02
05
02
fa
fd
05
07
05
02
fe
00
00
08
fe
05
0e
08
fc
04
01
01
ff
05
03
0d
03
02
02
07
06
06
02
00
01
fd
03
05
01
05
06
00
0b
fc
04
06
00
fb
00
03
ff
00
02
00
fe
ff
fc
04
09
01
08
02
04
02
03
04
04
09
01
ff
03
05
0b
05
02
0a
01
01
00
02
07
01
fd
00
02
04
fc
01
03
03
09
01
0c
08
ff
00
00
fd
01
fc
fe
04
02
02
04
00
02
02
fe
02
ff
03
ff
01
ff
fe
fe
08
ff
f8
08
07
03
05
01
00
03
00
00
04
04
fe
03
fd
02
01
03
01
03
03
06
00
03
04
00
03
fe
08
04
00
02
03
02
08
04
03
02
00
03
ff
04
06
03
01
08
02
07
03
06
00
03
04
02
01
03
03
fd
00
fe
0a
03
fd
ff
ff
00
fe
01
01
03
08
02
0b
09
05
03
02
02
ff
00
04
08
ff
01
05
00
fe
fc
02
03
04
00
ff
05
05
f6
04
0a
07
00
fe
00
fb
fe
ff
08
05
03
fd
04
fd
05
06
fe
03
fd
07
03
00
03
ff
03
ff
fe
06
fb
fe
03
05
02
fe
06
08
08
ff
05
00
01
04
03
ff
ff
07
03
00
02
00
01
00
00
00
ff
01
00
00
00
00
00
ff
ff
00
01
00
00
00
01
00
00
00
ff
ff
01
00
ff
00
00
00
01
01
00
ff
01
01
00
01
00
ff
ff
ff
ff
00
01
ff
ff
ff
00
00
00
01
00
00
ff
00
01
ff
ff
01
01
00
ff
00
02
00
00
00
ff
ff
00
00
00
00
ff
ff
02
00
00
ff
00
00
00
00
00
ff
00
00
01
00
00
00
00
00
00
00
01
00
01
01
00
01
00
ff
ff
ff
ff
ff
00
01
00
00
00
00
00
01
00
00
ff
01
ff
00
01
00
ff
00
00
00
00
00
ff
00
00
ff
00
00
00
01
01
00
ff
ff
00
ff
00
00
00
ff
01
ff
00
00
01
00
00
ff
00
ff
ff
00
01
ff
00
00
00
00
00
00
ff
00
01
00
00
00
ff
00
00
00
00
01
01
02
00
00
00
ff
00
ff
00
fe
00
00
00
00
00
00
01
ff
01
01
00
01
00
01
ff
ff
00
00
00
00
01
ff
00
ff
00
01
ff
00
00
01
ff
00
ff
01
00
00
01
00
01
ff
01
00
00
00
01
00
00
01
ff
00
00
00
ff
00
00
00
00
01
ff
01
ff
00
00
00
ff
00
ff
01
00
ff
01
00
00
00
ff
00
00
ff
00
00
01
00
00
00
fe
00
ff
00
01
00
00
01
ff
01
ff
ff
00
00
00
01
00
00
00
01
00
00
00
02
02
00
f4
f1
00
00
ce
cf
03
fc
00
0b
d3
00
cb
c2
02
f8
ff
ff
02
ff
f2
01
fb
f7
fc
f5
fb
cf
04
fc
ff
0f
fe
01
ff
03
fd
ff
02
08
e2
0c
03
fb
0b
ff
ed
05
00
ed
06
ec
ea
03
f1
05
f2
d5
04
0e
f7
f9
00
ea
f4
f5
fc
fe
f5
02
fc
e8
00
f3
05
05
f1
00
f7
02
05
ed
00
f6
f8
07
f2
fc
ea
ff
0b
04
e2
fe
0a
01
06
fc
07
e4
08
0d
f1
ff
07
f8
0a
03
09
f4
f9
0a
f9
fb
09
ff
00
01
01
00
ed
fd
f8
03
07
fc
ea
00
0a
05
00
04
fc
f4
fe
f8
03
fc
f7
fc
0a
03
01
fc
f3
02
01
04
01
00
02
04
00
c6
0c
e9
06
ff
ff
f7
f0
05
02
04
f9
ff
ec
f4
07
02
f6
0a
03
f7
03
f6
fd
fd
01
f8
ff
ea
05
03
02
fd
18
f7
03
fb
05
fe
fc
fd
00
fa
01
07
c5
fd
ff
dd
eb
f7
fe
09
e6
04
fa
ea
fe
ff
f8
f2
03
fe
00
00
d7
fc
fe
02
fc
f2
f2
e0
01
00
01
fd
00
ea
01
e7
00
fe
f8
fa
01
05
f6
f2
03
ff
fe
f1
e4
f1
e0
02
ee
e2
fa
c0
ff
00
01
03
0c
f4
de
02
0c
fe
03
04
fe
f7
f9
fd
f1
02
07
fc
b2
01
00
fa
fd
fe
d6
fe
08
f4
09
0f
08
fd
00
ff
02
05
fc
00
07
07
ec
03
01
16
f6
f4
02
fd
fe
0b
08
fe
fd
04
04
01
08
00
04
0c
0a
fe
06
04
fd
02
fb
fc
fa
fa
f5
00
0a
f8
02
02
03
ff
fb
0c
fc
fe
ff
01
11
07
05
f9
f9
01
fe
fb
03
01
f4
fb
14
06
15
fe
f2
08
ff
06
00
13
00
fe
fb
fe
fd
fe
03
ff
04
ff
01
01
07
fc
09
01
12
f8
fe
0c
00
f8
04
00
05
01
ff
fe
03
02
04
02
f8
fe
04
05
09
fb
04
01
fd
ff
03
00
06
03
fb
05
03
03
fc
03
0c
ff
02
fa
ff
fb
08
07
f8
02
09
f1
ff
07
04
11
01
04
07
fc
fa
f9
01
06
03
fd
04
09
01
02
06
04
ff
05
ff
00
02
ee
04
0c
01
fb
08
03
01
0d
0b
fe
f9
05
f3
ff
01
0f
fd
ff
f3
fc
fd
07
fa
fd
ff
03
ff
00
00
fe
04
fe
03
00
06
00
00
14
05
06
f9
0d
02
03
f5
fd
fe
fd
fe
1d
0f
f7
02
ff
05
01
09
f7
02
03
f7
fe
f8
04
02
01
f3
f7
01
01
fd
ff
fd
0e
04
03
04
02
fd
0f
03
fb
f8
04
fc
00
06
01
0a
05
00
fd
ff
04
09
1b
10
f9
fa
25
fe
12
04
01
fd
00
00
02
87
fa
00
03
f8
02
00
19
05
0e
12
fe
05
03
0a
fd
fb
14
14
03
ff
04
05
00
fb
02
fd
f8
06
fb
fb
06
04
05
14
f7
06
01
00
fb
fa
fa
fd
ff
fb
fe
03
ff
fd
05
fa
00
fd
fe
fd
03
01
ff
02
ff
05
01
fe
fc
01
f9
fd
00
04
ff
05
fd
fe
fe
07
06
fe
01
ff
ff
ff
fe
04
02
01
01
ff
01
fe
00
ff
ff
fc
04
00
ff
00
fe
04
00
ff
07
00
00
fe
ff
04
01
00
ff
00
fe
02
fe
00
fe
fe
02
06
ff
00
fb
fe
03
fd
ff
03
00
ff
01
01
00
01
02
ff
00
03
00
01
fb
01
ff
02
fe
fd
ff
fd
00
03
fe
ff
01
01
ff
00
01
01
ff
fe
04
fd
00
fa
ff
fe
fd
fc
ff
ff
ff
00
fe
02
fa
fc
fd
00
01
fc
00
fd
03
00
05
fb
00
fe
ff
00
ff
01
fe
00
fc
fe
fc
01
fe
ff
03
fe
ff
fe
fd
01
fe
05
01
fa
02
fb
01
04
00
fc
ff
fe
04
00
02
00
fd
03
ff
fd
01
02
ff
06
01
ff
01
fe
02
07
02
02
01
fe
02
fe
01
01
00
ff
00
fe
00
05
fd
ff
01
02
ff
ff
01
00
ff
01
01
00
05
01
00
fc
fe
fd
03
fb
ff
00
fd
00
fd
fb
00
ff
01
01
00
fd
00
fe
00
fe
02
02
02
fd
05
fe
05
fe
ff
00
00
ff
ff
02
fe
ff
ff
fd
01
ff
00
ff
01
fe
02
02
00
06
fc
fe
fe
01
00
02
00
01
fc
fa
ff
fd
00
fb
fd
02
00
00
03
fd
01
fc
fd
fe
01
fe
00
ff
f9
02
f9
d7
f7
00
07
05
05
d8
fe
0c
f8
0d
08
fd
02
0c
f9
0c
f5
f9
0f
01
0d
01
10
fd
04
fb
fa
07
f8
03
f0
ff
f9
fe
01
07
f0
07
f8
04
fd
07
04
ff
fe
f4
fb
e2
03
e4
fd
f8
17
03
ed
fd
f5
fb
ec
ff
f3
08
00
f3
01
01
d3
00
00
09
00
ff
fa
ec
14
04
e8
01
c4
04
fd
f3
02
e7
04
02
0b
01
fe
f4
fc
08
fd
f0
f3
10
f0
f1
03
ff
02
ee
ff
09
f5
06
f1
05
06
f5
ff
00
fe
04
f0
09
e8
ff
fd
ea
f6
14
ec
ec
f6
fe
11
07
0f
fd
fb
fe
ff
07
01
fc
01
03
ff
09
03
02
04
04
01
02
f8
01
bb
ee
0b
ff
fb
01
f3
0a
ff
fb
d6
db
ff
ec
fd
f4
05
06
04
07
dc
1b
ca
d7
06
fd
fc
00
0b
fc
02
fd
03
e3
fe
04
02
fe
02
f8
ff
f6
03
01
00
09
01
05
de
f4
f4
f6
fe
16
ff
f4
e9
fe
ff
d6
e2
f7
fb
fd
04
e1
f6
00
f9
ff
08
ed
f3
03
fb
04
d6
03
e2
01
fd
f3
05
f9
01
01
03
06
09
fb
00
02
fb
d4
ee
be
f6
ff
c9
06
d9
03
eb
05
ff
ff
f1
02
ff
00
ff
f4
03
01
f3
07
b6
e1
fb
fb
05
fa
fb
01
f1
0c
00
0a
02
f4
ee
fe
ff
f3
fc
06
03
01
fd
0a
ef
ed
cd
e3
fc
f9
c0
01
02
00
00
01
00
00
00
00
00
01
ff
ff
00
00
ff
00
00
ff
ff
ff
00
01
ff
00
00
00
ff
ff
00
ff
01
fe
01
ff
01
01
00
02
00
00
ff
00
00
01
ff
01
00
ff
01
00
00
02
00
01
ff
00
ff
02
ff
ff
02
01
01
ff
02
ff
00
00
01
01
00
00
01
ff
fe
00
ff
02
ff
00
02
00
03
00
fe
02
ff
00
00
00
01
00
00
02
00
00
ff
00
ff
00
01
00
00
ff
01
01
00
ff
ff
01
00
00
ff
00
ff
00
00
00
00
ff
ff
ff
00
02
00
ff
ff
ff
01
00
01
01
00
ff
01
ff
00
00
00
ff
02
01
01
ff
ff
ff
00
00
00
ff
ff
ff
02
01
fe
01
00
00
03
01
00
01
ff
01
ff
01
02
ff
02
00
01
00
ff
ff
01
01
01
ff
ff
01
ff
02
01
ff
00
02
02
00
ff
01
00
ff
fe
02
01
ff
ff
ff
ff
00
01
fe
00
01
00
ff
00
03
ff
00
fe
01
02
ff
01
00
01
01
ff
ff
00
fe
ff
00
01
ff
01
fe
01
ff
01
00
fe
01
00
01
01
00
00
fe
fe
ff
ff
00
00
01
ff
02
ff
ff
01
00
02
00
ff
ff
00
fd
00
00
00
ff
00
00
fd
ff
fe
ff
00
fe
00
00
ff
00
fe
01
ff
01
00
00
00
ff
00
ff
ff
ff
00
fe
00
ff
00
00
00
00
00
00
ff
00
01
d4
d4
fb
fb
fc
06
fd
04
ff
eb
e5
02
00
12
fc
0a
03
f9
f1
f8
04
01
15
03
fe
fc
04
02
fe
01
02
cc
07
